{
  "vocab": {
    "<PAD>": 0,
    "<UNK>": 1,
    "<BOS>": 2,
    "<EOS>": 3,
    "a": 4,
    "n": 5,
    "d": 6,
    "o": 7,
    "r": 8,
    "a</w>": 9,
    "f": 10,
    "i": 11,
    "c": 12,
    "l": 13,
    "m": 14,
    "e": 15,
    "t": 16,
    "e</w>": 17,
    "p": 18,
    "o</w>": 19,
    "s</w>": 20,
    "u": 21,
    "n</w>": 22,
    "s": 23,
    "b": 24,
    "l</w>": 25,
    "ñ": 26,
    "y</w>": 27,
    "í": 28,
    "é": 29,
    "y": 30,
    "h": 31,
    "á": 32,
    "g": 33,
    "u</w>": 34,
    "á</w>": 35,
    "z": 36,
    "q": 37,
    "ó": 38,
    "v": 39,
    "j": 40,
    "k": 41,
    "m</w>": 42,
    "x": 43,
    "d</w>": 44,
    "r</w>": 45,
    "i</w>": 46,
    "ú": 47,
    "í</w>": 48,
    "ó</w>": 49,
    "z</w>": 50,
    "h</w>": 51,
    "x</w>": 52,
    "c</w>": 53,
    "t</w>": 54,
    "v</w>": 55,
    "f</w>": 56,
    "é</w>": 57,
    "g</w>": 58,
    "k</w>": 59,
    "p</w>": 60,
    "ü": 61,
    "b</w>": 62,
    "j</w>": 63,
    "w": 64,
    "ú</w>": 65,
    "w</w>": 66,
    "q</w>": 67,
    "ñ</w>": 68,
    "ü</w>": 69,
    "de</w>": 70,
    "en": 71,
    "er": 72,
    "os</w>": 73,
    "ci": 74,
    "el</w>": 75,
    "ar": 76,
    "la</w>": 77,
    "es": 78,
    "co": 79,
    "an": 80,
    "en</w>": 81,
    "es</w>": 82,
    "as</w>": 83,
    "ad": 84,
    "in": 85,
    "on": 86,
    "re": 87,
    "al": 88,
    "ti": 89,
    "or": 90,
    "ent": 91,
    "st": 92,
    "ri": 93,
    "un": 94,
    "qu": 95,
    "ra": 96,
    "ta": 97,
    "ic": 98,
    "po": 99,
    "di": 100,
    "ca": 101,
    "ón</w>": 102,
    "si": 103,
    "li": 104,
    "do</w>": 105,
    "tr": 106,
    "al</w>": 107,
    "pr": 108,
    "id": 109,
    "is": 110,
    "ro": 111,
    "le": 112,
    "de": 113,
    "mi": 114,
    "los</w>": 115,
    "que</w>": 116,
    "la": 117,
    "del</w>": 118,
    "da": 119,
    "se</w>": 120,
    "na": 121,
    "cu": 122,
    "ac": 123,
    "em": 124,
    "ec": 125,
    "est": 126,
    "vi": 127,
    "pa": 128,
    "am": 129,
    "el": 130,
    "ma": 131,
    "ció": 132,
    "ción</w>": 133,
    "at": 134,
    "it": 135,
    "nt": 136,
    "ni": 137,
    "te": 138,
    "to": 139,
    "ab": 140,
    "par": 141,
    "ol": 142,
    "se": 143,
    "bi": 144,
    "tu": 145,
    "mp": 146,
    "br": 147,
    "om": 148,
    "ia</w>": 149,
    "ur": 150,
    "las</w>": 151,
    "so": 152,
    "por</w>": 153,
    "un</w>": 154,
    "ía</w>": 155,
    "ne": 156,
    "com": 157,
    "il": 158,
    "to</w>": 159,
    "gu": 160,
    "im": 161,
    "su": 162,
    "ia": 163,
    "fu": 164,
    "do": 165,
    "ter": 166,
    "as": 167,
    "con</w>": 168,
    "an</w>": 169,
    "enc": 170,
    "ant": 171,
    "ar</w>": 172,
    "ente</w>": 173,
    "ch": 174,
    "una</w>": 175,
    "dos</w>": 176,
    "ed": 177,
    "io": 178,
    "lo": 179,
    "fi": 180,
    "pe": 181,
    "eg": 182,
    "mb": 183,
    "no": 184,
    "pu": 185,
    "ba": 186,
    "su</w>": 187,
    "er</w>": 188,
    "ct": 189,
    "per": 190,
    "or</w>": 191,
    "ación</w>": 192,
    "io</w>": 193,
    "lo</w>": 194,
    "me": 195,
    "ra</w>": 196,
    "ig": 197,
    "da</w>": 198,
    "lu": 199,
    "ta</w>": 200,
    "on</w>": 201,
    "gr": 202,
    "os": 203,
    "bl": 204,
    "ue": 205,
    "con": 206,
    "ll": 207,
    "pi": 208,
    "ad</w>": 209,
    "et": 210,
    "enci": 211,
    "ui": 212,
    "mo": 213,
    "iv": 214,
    "oc": 215,
    "cio": 216,
    "re</w>": 217,
    "cion": 218,
    "mu": 219,
    "ca</w>": 220,
    "ado</w>": 221,
    "ex": 222,
    "nd": 223,
    "añ": 224,
    "como</w>": 225,
    "para</w>": 226,
    "ha": 227,
    "ce": 228,
    "ot": 229,
    "ob": 230,
    "entr": 231,
    "no</w>": 232,
    "te</w>": 233,
    "ul": 234,
    "and": 235,
    "du": 236,
    "sa": 237,
    "gi": 238,
    "hi": 239,
    "cr": 240,
    "us": 241,
    "má": 242,
    "rt": 243,
    "mente</w>": 244,
    "fe": 245,
    "ió": 246,
    "co</w>": 247,
    "sp": 248,
    "ir": 249,
    "era</w>": 250,
    "uc": 251,
    "sc": 252,
    "ada</w>": 253,
    "end": 254,
    "pl": 255,
    "fue</w>": 256,
    "ici": 257,
    "ep": 258,
    "og": 259,
    "bo": 260,
    "iz": 261,
    "ag": 262,
    "ap": 263,
    "ene": 264,
    "ut": 265,
    "ju": 266,
    "va": 267,
    "uer": 268,
    "ma</w>": 269,
    "ru": 270,
    "mar": 271,
    "le</w>": 272,
    "les</w>": 273,
    "ier": 274,
    "ib": 275,
    "ient": 276,
    "ga": 277,
    "nc": 278,
    "ud": 279,
    "ados</w>": 280,
    "od": 281,
    "esp": 282,
    "ef": 283,
    "tos</w>": 284,
    "cl": 285,
    "ev": 286,
    "bu": 287,
    "ve": 288,
    "au": 289,
    "res</w>": 290,
    "ov": 291,
    "fr": 292,
    "cione": 293,
    "ciones</w>": 294,
    "ua": 295,
    "ns": 296,
    "op": 297,
    "na</w>": 298,
    "ver": 299,
    "esta": 300,
    "um": 301,
    "go</w>": 302,
    "ro</w>": 303,
    "ho": 304,
    "nci": 305,
    "if": 306,
    "ej": 307,
    "ub": 308,
    "eci": 309,
    "aj": 310,
    "za": 311,
    "ios</w>": 312,
    "fo": 313,
    "go": 314,
    "rm": 315,
    "ment": 316,
    "fa": 317,
    "ante</w>": 318,
    "mo</w>": 319,
    "ari": 320,
    "más</w>": 321,
    "lí": 322,
    "ens": 323,
    "és</w>": 324,
    "th": 325,
    "vo</w>": 326,
    "ip": 327,
    "der": 328,
    "mer": 329,
    "eb": 330,
    "po</w>": 331,
    "part": 332,
    "rr": 333,
    "encia": 334,
    "ié": 335,
    "ser": 336,
    "rg": 337,
    "ando</w>": 338,
    "ie": 339,
    "nter": 340,
    "tor": 341,
    "gra": 342,
    "cos</w>": 343,
    "ug": 344,
    "res": 345,
    "én</w>": 346,
    "ba</w>": 347,
    "encia</w>": 348,
    "ras</w>": 349,
    "ió</w>": 350,
    "jo</w>": 351,
    "lt": 352,
    "rí": 353,
    "tam": 354,
    "va</w>": 355,
    "av": 356,
    "za</w>": 357,
    "nos</w>": 358,
    "ist": 359,
    "ros</w>": 360,
    "sus</w>": 361,
    "car": 362,
    "esc": 363,
    "mient": 364,
    "ea": 365,
    "nu": 366,
    "encias</w>": 367,
    "vo": 368,
    "idos</w>": 369,
    "bre</w>": 370,
    "of": 371,
    "tamb": 372,
    "gl": 373,
    "tambi": 374,
    "tambié": 375,
    "también</w>": 376,
    "ales</w>": 377,
    "oci": 378,
    "col": 379,
    "ica</w>": 380,
    "ali": 381,
    "ber": 382,
    "ciona": 383,
    "cción</w>": 384,
    "so</w>": 385,
    "vers": 386,
    "ha</w>": 387,
    "das</w>": 388,
    "amente</w>": 389,
    "tic": 390,
    "und": 391,
    "man": 392,
    "án": 393,
    "tas</w>": 394,
    "este</w>": 395,
    "cor": 396,
    "is</w>": 397,
    "aci": 398,
    "arr": 399,
    "sa</w>": 400,
    "inter": 401,
    "ico</w>": 402,
    "ños</w>": 403,
    "entre</w>": 404,
    "icos</w>": 405,
    "cont": 406,
    "ena": 407,
    "ente": 408,
    "up": 409,
    "lla</w>": 410,
    "esi": 411,
    "ng": 412,
    "cer": 413,
    "miento</w>": 414,
    "be": 415,
    "he": 416,
    "lmente</w>": 417,
    "ce</w>": 418,
    "eni": 419,
    "ge": 420,
    "enta": 421,
    "ores</w>": 422,
    "rencias</w>": 423,
    "ran": 424,
    "erencias</w>": 425,
    "ferencias</w>": 426,
    "almente</w>": 427,
    "ay": 428,
    "endo</w>": 429,
    "nde</w>": 430,
    "ja": 431,
    "aciones</w>": 432,
    "tra": 433,
    "pro": 434,
    "eferencias</w>": 435,
    "referencias</w>": 436,
    "ast": 437,
    "lan": 438,
    "sm": 439,
    "án</w>": 440,
    "esta</w>": 441,
    "ener": 442,
    "hu": 443,
    "ña</w>": 444,
    "años</w>": 445,
    "lar": 446,
    "ue</w>": 447,
    "tori": 448,
    "xi": 449,
    "ga</w>": 450,
    "az": 451,
    "the</w>": 452,
    "fí": 453,
    "ante": 454,
    "eno": 455,
    "eo": 456,
    "art": 457,
    "eñ": 458,
    "nes</w>": 459,
    "ir</w>": 460,
    "rá": 461,
    "iendo</w>": 462,
    "cons": 463,
    "versi": 464,
    "ien": 465,
    "nf": 466,
    "comp": 467,
    "ía": 468,
    "antes</w>": 469,
    "tados</w>": 470,
    "ición</w>": 471,
    "esti": 472,
    "for": 473,
    "inci": 474,
    "pers": 475,
    "tern": 476,
    "fuer": 477,
    "ou": 478,
    "espa": 479,
    "cas</w>": 480,
    "je": 481,
    "entra": 482,
    "estr": 483,
    "mé": 484,
    "ero</w>": 485,
    "bar": 486,
    "eu": 487,
    "min": 488,
    "tros</w>": 489,
    "ogra": 490,
    "sde</w>": 491,
    "esde</w>": 492,
    "rante</w>": 493,
    "af": 494,
    "desde</w>": 495,
    "hab": 496,
    "rd": 497,
    "son</w>": 498,
    "obre</w>": 499,
    "sobre</w>": 500,
    "aciona": 501,
    "ya</w>": 502,
    "can": 503,
    "tiv": 504,
    "ado": 505,
    "íc": 506,
    "mas</w>": 507,
    "onde</w>": 508,
    "ort": 509,
    "des</w>": 510,
    "uni": 511,
    "anci": 512,
    "aro": 513,
    "pero</w>": 514,
    "asta</w>": 515,
    "enti": 516,
    "ciu": 517,
    "españ": 518,
    "urante</w>": 519,
    "durante</w>": 520,
    "ai": 521,
    "jo": 522,
    "ones</w>": 523,
    "ciud": 524,
    "ciuda": 525,
    "her": 526,
    "ís": 527,
    "xp": 528,
    "rea": 529,
    "hasta</w>": 530,
    "tras</w>": 531,
    "ten": 532,
    "parte</w>": 533,
    "ué": 534,
    "enl": 535,
    "zo</w>": 536,
    "fl": 537,
    "rs": 538,
    "pa</w>": 539,
    "uev": 540,
    "iente</w>": 541,
    "us</w>": 542,
    "año</w>": 543,
    "desp": 544,
    "enla": 545,
    "adas</w>": 546,
    "perso": 547,
    "nuev": 548,
    "toria</w>": 549,
    "ric": 550,
    "icip": 551,
    "person": 552,
    "all": 553,
    "enlac": 554,
    "xtern": 555,
    "extern": 556,
    "tí": 557,
    "contr": 558,
    "in</w>": 559,
    "lación</w>": 560,
    "ina": 561,
    "ie</w>": 562,
    "mento</w>": 563,
    "sh": 564,
    "lg": 565,
    "enlace": 566,
    "enlaces</w>": 567,
    "ér": 568,
    "externo": 569,
    "externos</w>": 570,
    "parti": 571,
    "ing": 572,
    "mon": 573,
    "tro</w>": 574,
    "uy": 575,
    "edi": 576,
    "icas</w>": 577,
    "cas": 578,
    "ual</w>": 579,
    "nv": 580,
    "serv": 581,
    "tal</w>": 582,
    "fer": 583,
    "dr": 584,
    "ian": 585,
    "donde</w>": 586,
    "ina</w>": 587,
    "aron</w>": 588,
    "stas</w>": 589,
    "cada</w>": 590,
    "form": 591,
    "entes</w>": 592,
    "escr": 593,
    "teri": 594,
    "sin</w>": 595,
    "anti": 596,
    "ál": 597,
    "iene</w>": 598,
    "reci": 599,
    "escri": 600,
    "esto</w>": 601,
    "adr": 602,
    "despu": 603,
    "may": 604,
    "despué": 605,
    "después</w>": 606,
    "naciona": 607,
    "era": 608,
    "persona": 609,
    "ser</w>": 610,
    "xt": 611,
    "istas</w>": 612,
    "ciudad</w>": 613,
    "gn": 614,
    "mis": 615,
    "unt": 616,
    "ún</w>": 617,
    "cam": 618,
    "ero": 619,
    "tica</w>": 620,
    "ja</w>": 621,
    "pri": 622,
    "eo</w>": 623,
    "colo": 624,
    "ez": 625,
    "ili": 626,
    "lle": 627,
    "dí": 628,
    "ve</w>": 629,
    "zó</w>": 630,
    "gos</w>": 631,
    "mera</w>": 632,
    "iero": 633,
    "estad": 634,
    "rec": 635,
    "iversi": 636,
    "pres": 637,
    "uj": 638,
    "tiene</w>": 639,
    "peci": 640,
    "alt": 641,
    "speci": 642,
    "fici": 643,
    "imera</w>": 644,
    "ez</w>": 645,
    "ho</w>": 646,
    "rios</w>": 647,
    "of</w>": 648,
    "gener": 649,
    "rimera</w>": 650,
    "primera</w>": 651,
    "ieron</w>": 652,
    "nas</w>": 653,
    "qui": 654,
    "habí": 655,
    "sos</w>": 656,
    "gan": 657,
    "tie": 658,
    "imiento</w>": 659,
    "pera": 660,
    "ario</w>": 661,
    "ade": 662,
    "tiem": 663,
    "menta": 664,
    "ograf": 665,
    "ás</w>": 666,
    "ol</w>": 667,
    "peri": 668,
    "uando</w>": 669,
    "pt": 670,
    "ino</w>": 671,
    "ografí": 672,
    "ografía</w>": 673,
    "cación</w>": 674,
    "san</w>": 675,
    "bri": 676,
    "ección</w>": 677,
    "stados</w>": 678,
    "genera": 679,
    "ración</w>": 680,
    "tá": 681,
    "uert": 682,
    "ede</w>": 683,
    "den</w>": 684,
    "especi": 685,
    "cuando</w>": 686,
    "bier": 687,
    "ei": 688,
    "int": 689,
    "estados</w>": 690,
    "ne</w>": 691,
    "mism": 692,
    "niversi": 693,
    "universi": 694,
    "ades</w>": 695,
    "enta</w>": 696,
    "está</w>": 697,
    "ador</w>": 698,
    "nidos</w>": 699,
    "soci": 700,
    "je</w>": 701,
    "mbre</w>": 702,
    "ombre</w>": 703,
    "prim": 704,
    "gí": 705,
    "ño</w>": 706,
    "mund": 707,
    "rc": 708,
    "reg": 709,
    "lé": 710,
    "ind": 711,
    "ido</w>": 712,
    "storia</w>": 713,
    "amiento</w>": 714,
    "inc": 715,
    "terr": 716,
    "istoria</w>": 717,
    "historia</w>": 718,
    "dera": 719,
    "nacional</w>": 720,
    "anos</w>": 721,
    "tico</w>": 722,
    "tar": 723,
    "pos</w>": 724,
    "vé": 725,
    "entro</w>": 726,
    "dades</w>": 727,
    "arios</w>": 728,
    "gund": 729,
    "ase</w>": 730,
    "unidos</w>": 731,
    "egund": 732,
    "segund": 733,
    "ena</w>": 734,
    "én": 735,
    "seri": 736,
    "gran</w>": 737,
    "guer": 738,
    "cí": 739,
    "vos</w>": 740,
    "pú": 741,
    "cin": 742,
    "rado</w>": 743,
    "ión</w>": 744,
    "ea</w>": 745,
    "ien</w>": 746,
    "ces": 747,
    "rn": 748,
    "rada</w>": 749,
    "estab": 750,
    "men": 751,
    "ueg": 752,
    "otros</w>": 753,
    "tt": 754,
    "senta": 755,
    "que": 756,
    "uv": 757,
    "ancia</w>": 758,
    "úb": 759,
    "unto</w>": 760,
    "ona": 761,
    "gar</w>": 762,
    "ge</w>": 763,
    "intern": 764,
    "sig": 765,
    "eq": 766,
    "estu": 767,
    "ucción</w>": 768,
    "adem": 769,
    "tó</w>": 770,
    "medi": 771,
    "mos</w>": 772,
    "gar": 773,
    "españa</w>": 774,
    "ye": 775,
    "había</w>": 776,
    "ula</w>": 777,
    "prime": 778,
    "arro": 779,
    "me</w>": 780,
    "primer</w>": 781,
    "idades</w>": 782,
    "lv": 783,
    "ín</w>": 784,
    "guerr": 785,
    "ló": 786,
    "estado</w>": 787,
    "rem": 788,
    "uno</w>": 789,
    "ost": 790,
    "pla": 791,
    "dios</w>": 792,
    "il</w>": 793,
    "tim": 794,
    "tb": 795,
    "seg": 796,
    "stos</w>": 797,
    "esenta": 798,
    "resenta": 799,
    "presenta": 800,
    "ela</w>": 801,
    "ocid": 802,
    "fuero": 803,
    "ór": 804,
    "des": 805,
    "ución</w>": 806,
    "odo</w>": 807,
    "fueron</w>": 808,
    "tación</w>": 809,
    "rinci": 810,
    "princi": 811,
    "princip": 812,
    "úl": 813,
    "sión</w>": 814,
    "unos</w>": 815,
    "ón": 816,
    "mili": 817,
    "alid": 818,
    "té": 819,
    "mari": 820,
    "nombre</w>": 821,
    "uego</w>": 822,
    "tó": 823,
    "éx": 824,
    "cá": 825,
    "ida</w>": 826,
    "ista</w>": 827,
    "inal</w>": 828,
    "nicip": 829,
    "unicip": 830,
    "municip": 831,
    "escrit": 832,
    "universid": 833,
    "universida": 834,
    "id</w>": 835,
    "ít": 836,
    "ph": 837,
    "wi": 838,
    "baj": 839,
    "tres</w>": 840,
    "dis": 841,
    "cado</w>": 842,
    "tivo</w>": 843,
    "illa</w>": 844,
    "icación</w>": 845,
    "áf": 846,
    "ís</w>": 847,
    "cos": 848,
    "rica</w>": 849,
    "ugar</w>": 850,
    "anto</w>": 851,
    "iente": 852,
    "we": 853,
    "ron": 854,
    "marc": 855,
    "ki": 856,
    "listas</w>": 857,
    "oo": 858,
    "ento": 859,
    "be</w>": 860,
    "ientes</w>": 861,
    "ofici": 862,
    "ita": 863,
    "aria": 864,
    "ierr": 865,
    "tri": 866,
    "ensi": 867,
    "enes</w>": 868,
    "universidad</w>": 869,
    "así</w>": 870,
    "vinci": 871,
    "clu": 872,
    "ani": 873,
    "mismo</w>": 874,
    "ovinci": 875,
    "rovinci": 876,
    "provinci": 877,
    "uede</w>": 878,
    "dente</w>": 879,
    "forma</w>": 880,
    "partid": 881,
    "nueva</w>": 882,
    "mú": 883,
    "puede</w>": 884,
    "dores</w>": 885,
    "har": 886,
    "amili": 887,
    "famili": 888,
    "ren": 889,
    "zo": 890,
    "ces</w>": 891,
    "eman": 892,
    "atro</w>": 893,
    "cuer": 894,
    "tene": 895,
    "ese</w>": 896,
    "ing</w>": 897,
    "orte</w>": 898,
    "entin": 899,
    "vez</w>": 900,
    "cc": 901,
    "ró</w>": 902,
    "blación</w>": 903,
    "oblación</w>": 904,
    "población</w>": 905,
    "gres": 906,
    "estos</w>": 907,
    "gru": 908,
    "ím": 909,
    "club</w>": 910,
    "pod": 911,
    "ella</w>": 912,
    "grup": 913,
    "ins": 914,
    "ín": 915,
    "ús": 916,
    "alida": 917,
    "const": 918,
    "ías</w>": 919,
    "para": 920,
    "guerra</w>": 921,
    "ii</w>": 922,
    "et</w>": 923,
    "interna": 924,
    "ola</w>": 925,
    "pare": 926,
    "si</w>": 927,
    "alidad</w>": 928,
    "cciones</w>": 929,
    "ret": 930,
    "comu": 931,
    "grupo</w>": 932,
    "ss": 933,
    "oni": 934,
    "uli": 935,
    "óm": 936,
    "nú": 937,
    "trab": 938,
    "tores</w>": 939,
    "ud</w>": 940,
    "comun": 941,
    "traba": 942,
    "nocid": 943,
    "onocid": 944,
    "conocid": 945,
    "trabaj": 946,
    "jer": 947,
    "poc": 948,
    "cidos</w>": 949,
    "lugar</w>": 950,
    "anda</w>": 951,
    "jos</w>": 952,
    "mero</w>": 953,
    "rev": 954,
    "familia</w>": 955,
    "merc": 956,
    "ár": 957,
    "ld": 958,
    "hac": 959,
    "incl": 960,
    "acia</w>": 961,
    "enos</w>": 962,
    "entra</w>": 963,
    "ara": 964,
    "mes</w>": 965,
    "lá": 966,
    "general</w>": 967,
    "principa": 968,
    "mbar": 969,
    "icado</w>": 970,
    "ke": 971,
    "deb": 972,
    "emp": 973,
    "ora</w>": 974,
    "cit": 975,
    "ust": 976,
    "arrol": 977,
    "isión</w>": 978,
    "cual</w>": 979,
    "arroll": 980,
    "inclu": 981,
    "madr": 982,
    "camp": 983,
    "serie</w>": 984,
    "sti": 985,
    "sarroll": 986,
    "esarroll": 987,
    "desarroll": 988,
    "ica": 989,
    "ana</w>": 990,
    "sid": 991,
    "ale": 992,
    "ah": 993,
    "contra</w>": 994,
    "gentin": 995,
    "rgentin": 996,
    "argentin": 997,
    "ctos</w>": 998,
    "cab": 999,
    "ademá": 1000,
    "además</w>": 1001,
    "partido</w>": 1002,
    "odos</w>": 1003,
    "ivos</w>": 1004,
    "adi": 1005,
    "idente</w>": 1006,
    "zación</w>": 1007,
    "ización</w>": 1008,
    "tado</w>": 1009,
    "equi": 1010,
    "dere": 1011,
    "aun": 1012,
    "tantes</w>": 1013,
    "mayo": 1014,
    "mayor</w>": 1015,
    "có": 1016,
    "sol": 1017,
    "muy</w>": 1018,
    "tran": 1019,
    "term": 1020,
    "estud": 1021,
    "cop": 1022,
    "socia": 1023,
    "estudi": 1024,
    "real": 1025,
    "todo</w>": 1026,
    "biern": 1027,
    "obiern": 1028,
    "gobiern": 1029,
    "meri": 1030,
    "aunq": 1031,
    "aunqu": 1032,
    "aunque</w>": 1033,
    "ntos</w>": 1034,
    "endi": 1035,
    "anta</w>": 1036,
    "llos</w>": 1037,
    "sur</w>": 1038,
    "pen": 1039,
    "dici": 1040,
    "bajo</w>": 1041,
    "ey</w>": 1042,
    "adores</w>": 1043,
    "pas": 1044,
    "ias</w>": 1045,
    "yor": 1046,
    "ticos</w>": 1047,
    "han</w>": 1048,
    "segú": 1049,
    "según</w>": 1050,
    "juli": 1051,
    "equip": 1052,
    "sl": 1053,
    "emente</w>": 1054,
    "lado</w>": 1055,
    "regi": 1056,
    "gen</w>": 1057,
    "mación</w>": 1058,
    "embar": 1059,
    "ech": 1060,
    "ura": 1061,
    "uentra</w>": 1062,
    "cuentra</w>": 1063,
    "encuentra</w>": 1064,
    "ses</w>": 1065,
    "equipo</w>": 1066,
    "ard": 1067,
    "perm": 1068,
    "reali": 1069,
    "tuv": 1070,
    "mero": 1071,
    "ober": 1072,
    "mento": 1073,
    "yu": 1074,
    "tuvo</w>": 1075,
    "sigl": 1076,
    "bol</w>": 1077,
    "bra": 1078,
    "perio": 1079,
    "yo</w>": 1080,
    "iones</w>": 1081,
    "ún": 1082,
    "ense</w>": 1083,
    "siglo</w>": 1084,
    "eran</w>": 1085,
    "tiemp": 1086,
    "tiempo</w>": 1087,
    "ich": 1088,
    "tes</w>": 1089,
    "tení": 1090,
    "sica</w>": 1091,
    "entras</w>": 1092,
    "ua</w>": 1093,
    "ientras</w>": 1094,
    "mientras</w>": 1095,
    "wa": 1096,
    "junto</w>": 1097,
    "km</w>": 1098,
    "internac": 1099,
    "internaci": 1100,
    "cerc": 1101,
    "internacio": 1102,
    "internacion": 1103,
    "sición</w>": 1104,
    "internaciona": 1105,
    "óg": 1106,
    "llas</w>": 1107,
    "ác": 1108,
    "mentos</w>": 1109,
    "sido</w>": 1110,
    "todos</w>": 1111,
    "nción</w>": 1112,
    "termi": 1113,
    "oi": 1114,
    "gobierno</w>": 1115,
    "uci": 1116,
    "atos</w>": 1117,
    "ól": 1118,
    "termin": 1119,
    "rect": 1120,
    "rb": 1121,
    "itos</w>": 1122,
    "dé": 1123,
    "cé": 1124,
    "dición</w>": 1125,
    "orada</w>": 1126,
    "lesi": 1127,
    "esa</w>": 1128,
    "bras</w>": 1129,
    "vida</w>": 1130,
    "gé": 1131,
    "am</w>": 1132,
    "mí": 1133,
    "éc": 1134,
    "gó</w>": 1135,
    "út": 1136,
    "uel": 1137,
    "rig": 1138,
    "solo</w>": 1139,
    "rl": 1140,
    "españo": 1141,
    "mor": 1142,
    "rep": 1143,
    "inos</w>": 1144,
    "norte</w>": 1145,
    "provincia</w>": 1146,
    "conc": 1147,
    "ck</w>": 1148,
    "and</w>": 1149,
    "ed</w>": 1150,
    "íf": 1151,
    "oficia": 1152,
    "ala": 1153,
    "ví": 1154,
    "fú": 1155,
    "alla</w>": 1156,
    "rde</w>": 1157,
    "otras</w>": 1158,
    "iciones</w>": 1159,
    "cond": 1160,
    "egos</w>": 1161,
    "final</w>": 1162,
    "ticip": 1163,
    "tera": 1164,
    "abri": 1165,
    "servi": 1166,
    "pe</w>": 1167,
    "hos</w>": 1168,
    "tbol</w>": 1169,
    "oy": 1170,
    "olistas</w>": 1171,
    "iografía</w>": 1172,
    "útbol</w>": 1173,
    "fútbol</w>": 1174,
    "trans": 1175,
    "cula</w>": 1176,
    "segunda</w>": 1177,
    "herm": 1178,
    "iti": 1179,
    "rera</w>": 1180,
    "tub": 1181,
    "embarg": 1182,
    "xico</w>": 1183,
    "um</w>": 1184,
    "embargo</w>": 1185,
    "personas</w>": 1186,
    "ró": 1187,
    "eng": 1188,
    "bolistas</w>": 1189,
    "uri": 1190,
    "nuevo</w>": 1191,
    "ande": 1192,
    "estas</w>": 1193,
    "rticip": 1194,
    "articip": 1195,
    "particip": 1196,
    "anta": 1197,
    "uien</w>": 1198,
    "ka": 1199,
    "enf": 1200,
    "río</w>": 1201,
    "ler": 1202,
    "uel</w>": 1203,
    "prem": 1204,
    "chos</w>": 1205,
    "cul": 1206,
    "municipi": 1207,
    "municipio</w>": 1208,
    "eros</w>": 1209,
    "ona</w>": 1210,
    "julio</w>": 1211,
    "deci": 1212,
    "porada</w>": 1213,
    "éxico</w>": 1214,
    "ameri": 1215,
    "mporada</w>": 1216,
    "emporada</w>": 1217,
    "temporada</w>": 1218,
    "yo": 1219,
    "fran": 1220,
    "ltim": 1221,
    "escu": 1222,
    "enco": 1223,
    "nici": 1224,
    "amento</w>": 1225,
    "act": 1226,
    "tbolistas</w>": 1227,
    "utbolistas</w>": 1228,
    "futbolistas</w>": 1229,
    "ck": 1230,
    "rop": 1231,
    "méxico</w>": 1232,
    "aq": 1233,
    "tivos</w>": 1234,
    "visión</w>": 1235,
    "bros</w>": 1236,
    "ducción</w>": 1237,
    "lig": 1238,
    "hij": 1239,
    "irect": 1240,
    "direct": 1241,
    "sal": 1242,
    "lección</w>": 1243,
    "osición</w>": 1244,
    "posición</w>": 1245,
    "bido</w>": 1246,
    "luego</w>": 1247,
    "espo": 1248,
    "nica</w>": 1249,
    "nero</w>": 1250,
    "inici": 1251,
    "lleg": 1252,
    "serva": 1253,
    "tl": 1254,
    "derec": 1255,
    "derech": 1256,
    "st</w>": 1257,
    "iber": 1258,
    "uesto</w>": 1259,
    "puesto</w>": 1260,
    "estaba</w>": 1261,
    "arm": 1262,
    "pos": 1263,
    "ch</w>": 1264,
    "nz": 1265,
    "nalmente</w>": 1266,
    "uan</w>": 1267,
    "compa": 1268,
    "ang": 1269,
    "th</w>": 1270,
    "tante</w>": 1271,
    "mado</w>": 1272,
    "oj": 1273,
    "quien</w>": 1274,
    "mayo</w>": 1275,
    "uegos</w>": 1276,
    "sidente</w>": 1277,
    "centra": 1278,
    "ala</w>": 1279,
    "paí": 1280,
    "bra</w>": 1281,
    "país</w>": 1282,
    "ícula</w>": 1283,
    "emb": 1284,
    "lare": 1285,
    "esidente</w>": 1286,
    "residente</w>": 1287,
    "cimiento</w>": 1288,
    "ana": 1289,
    "día</w>": 1290,
    "ey": 1291,
    "mundo</w>": 1292,
    "emas</w>": 1293,
    "últim": 1294,
    "fuerz": 1295,
    "cono": 1296,
    "hacia</w>": 1297,
    "esa": 1298,
    "muert": 1299,
    "juni": 1300,
    "arias</w>": 1301,
    "juegos</w>": 1302,
    "unas</w>": 1303,
    "vas</w>": 1304,
    "rero</w>": 1305,
    "juan</w>": 1306,
    "larg": 1307,
    "lib": 1308,
    "centro</w>": 1309,
    "steri": 1310,
    "uales</w>": 1311,
    "rente</w>": 1312,
    "tanto</w>": 1313,
    "ulos</w>": 1314,
    "jos": 1315,
    "idera": 1316,
    "prop": 1317,
    "div": 1318,
    "presidente</w>": 1319,
    "iste": 1320,
    "siendo</w>": 1321,
    "anc": 1322,
    "urop": 1323,
    "lícula</w>": 1324,
    "elícula</w>": 1325,
    "película</w>": 1326,
    "europ": 1327,
    "puert": 1328,
    "mont": 1329,
    "ital</w>": 1330,
    "omen": 1331,
    "arc": 1332,
    "americ": 1333,
    "dio</w>": 1334,
    "ano</w>": 1335,
    "encon": 1336,
    "encont": 1337,
    "encontr": 1338,
    "herma": 1339,
    "tra</w>": 1340,
    "éase</w>": 1341,
    "ebido</w>": 1342,
    "pon": 1343,
    "enid": 1344,
    "cort": 1345,
    "uper": 1346,
    "véase</w>": 1347,
    "debido</w>": 1348,
    "dencia</w>": 1349,
    "lares</w>": 1350,
    "comen": 1351,
    "comenz": 1352,
    "tubr": 1353,
    "tubre</w>": 1354,
    "ctubre</w>": 1355,
    "octubre</w>": 1356,
    "aria</w>": 1357,
    "argentina</w>": 1358,
    "ingl": 1359,
    "cios</w>": 1360,
    "rmente</w>": 1361,
    "tiemb": 1362,
    "ág": 1363,
    "tiembr": 1364,
    "tiembre</w>": 1365,
    "marz": 1366,
    "leman": 1367,
    "red": 1368,
    "divi": 1369,
    "gunos</w>": 1370,
    "lgunos</w>": 1371,
    "algunos</w>": 1372,
    "iert": 1373,
    "ae</w>": 1374,
    "ptiembre</w>": 1375,
    "eptiembre</w>": 1376,
    "septiembre</w>": 1377,
    "ak": 1378,
    "recib": 1379,
    "enero</w>": 1380,
    "nales</w>": 1381,
    "ticas</w>": 1382,
    "lista</w>": 1383,
    "aleman": 1384,
    "marí": 1385,
    "marzo</w>": 1386,
    "camente</w>": 1387,
    "hil": 1388,
    "indi": 1389,
    "él</w>": 1390,
    "josé</w>": 1391,
    "uf": 1392,
    "mpres": 1393,
    "revi": 1394,
    "parec": 1395,
    "uti": 1396,
    "mundi": 1397,
    "rencia</w>": 1398,
    "paci": 1399,
    "port": 1400,
    "mundia": 1401,
    "mundial</w>": 1402,
    "junio</w>": 1403,
    "lb": 1404,
    "glesi": 1405,
    "iglesi": 1406,
    "eas</w>": 1407,
    "ulas</w>": 1408,
    "are": 1409,
    "icamente</w>": 1410,
    "herman": 1411,
    "antig": 1412,
    "istr": 1413,
    "miento": 1414,
    "cost": 1415,
    "mientos</w>": 1416,
    "duci": 1417,
    "internacional</w>": 1418,
    "ars": 1419,
    "libr": 1420,
    "servic": 1421,
    "regió": 1422,
    "región</w>": 1423,
    "siste": 1424,
    "rmación</w>": 1425,
    "rrera</w>": 1426,
    "premi": 1427,
    "arq": 1428,
    "lica</w>": 1429,
    "anter": 1430,
    "arqu": 1431,
    "ues</w>": 1432,
    "ivers": 1433,
    "embr": 1434,
    "arrera</w>": 1435,
    "sim": 1436,
    "cens": 1437,
    "terc": 1438,
    "tenía</w>": 1439,
    "sistem": 1440,
    "sistema</w>": 1441,
    "tierr": 1442,
    "uestr": 1443,
    "sk": 1444,
    "abril</w>": 1445,
    "comuni": 1446,
    "inglé": 1447,
    "inglés</w>": 1448,
    "pción</w>": 1449,
    "realiz": 1450,
    "ll</w>": 1451,
    "mart": 1452,
    "osto</w>": 1453,
    "ás": 1454,
    "alia</w>": 1455,
    "bj": 1456,
    "madri": 1457,
    "dicie": 1458,
    "diciem": 1459,
    "diciemb": 1460,
    "diciembr": 1461,
    "diciembre</w>": 1462,
    "nciones</w>": 1463,
    "gosto</w>": 1464,
    "agosto</w>": 1465,
    "mó": 1466,
    "enter</w>": 1467,
    "iano</w>": 1468,
    "epresenta": 1469,
    "representa": 1470,
    "rey</w>": 1471,
    "uatro</w>": 1472,
    "cuatro</w>": 1473,
    "ítica</w>": 1474,
    "eos</w>": 1475,
    "ento</w>": 1476,
    "mó</w>": 1477,
    "ps": 1478,
    "propi": 1479,
    "america": 1480,
    "ox": 1481,
    "servici": 1482,
    "zado</w>": 1483,
    "tener</w>": 1484,
    "super": 1485,
    "ini": 1486,
    "brero</w>": 1487,
    "cesi": 1488,
    "varios</w>": 1489,
    "uch": 1490,
    "oficial</w>": 1491,
    "conf": 1492,
    "distr": 1493,
    "ormación</w>": 1494,
    "formación</w>": 1495,
    "bum</w>": 1496,
    "liber": 1497,
    "obra</w>": 1498,
    "español</w>": 1499,
    "evisión</w>": 1500,
    "center</w>": 1501,
    "levisión</w>": 1502,
    "lbum</w>": 1503,
    "álbum</w>": 1504,
    "carrera</w>": 1505,
    "úmero</w>": 1506,
    "tor</w>": 1507,
    "embre</w>": 1508,
    "ialmente</w>": 1509,
    "llev": 1510,
    "anto": 1511,
    "número</w>": 1512,
    "ña": 1513,
    "elevisión</w>": 1514,
    "televisión</w>": 1515,
    "bres</w>": 1516,
    "ya": 1517,
    "iembre</w>": 1518,
    "viembre</w>": 1519,
    "oviembre</w>": 1520,
    "noviembre</w>": 1521,
    "ono": 1522,
    "distri": 1523,
    "andr": 1524,
    "lm": 1525,
    "ld</w>": 1526,
    "carg": 1527,
    "lidades</w>": 1528,
    "ellos</w>": 1529,
    "ng</w>": 1530,
    "espe": 1531,
    "onat": 1532,
    "eden</w>": 1533,
    "casa</w>": 1534,
    "eó": 1535,
    "nico</w>": 1536,
    "ko": 1537,
    "úsica</w>": 1538,
    "música</w>": 1539,
    "aí": 1540,
    "itantes</w>": 1541,
    "cana": 1542,
    "madrid</w>": 1543,
    "ide</w>": 1544,
    "conv": 1545,
    "alg": 1546,
    "está": 1547,
    "compl": 1548,
    "lc": 1549,
    "enad": 1550,
    "itar</w>": 1551,
    "idas</w>": 1552,
    "ualmente</w>": 1553,
    "lf": 1554,
    "antigu": 1555,
    "ay</w>": 1556,
    "jor</w>": 1557,
    "ati": 1558,
    "cialmente</w>": 1559,
    "ejor</w>": 1560,
    "mejor</w>": 1561,
    "rel": 1562,
    "erencia</w>": 1563,
    "estru": 1564,
    "xc": 1565,
    "sas</w>": 1566,
    "tamente</w>": 1567,
    "tip": 1568,
    "uela</w>": 1569,
    "opera": 1570,
    "vamente</w>": 1571,
    "ural</w>": 1572,
    "ipos</w>": 1573,
    "pá": 1574,
    "premio</w>": 1575,
    "arri": 1576,
    "enton": 1577,
    "principal</w>": 1578,
    "ty</w>": 1579,
    "uenta</w>": 1580,
    "ur</w>": 1581,
    "ensa": 1582,
    "sidera": 1583,
    "real</w>": 1584,
    "cuenta</w>": 1585,
    "nsidera": 1586,
    "onsidera": 1587,
    "considera": 1588,
    "mar</w>": 1589,
    "rv": 1590,
    "encontra": 1591,
    "rancia</w>": 1592,
    "edición</w>": 1593,
    "eso": 1594,
    "otal</w>": 1595,
    "maría</w>": 1596,
    "rea</w>": 1597,
    "agu": 1598,
    "calidad</w>": 1599,
    "permi": 1600,
    "ende": 1601,
    "total</w>": 1602,
    "ueden</w>": 1603,
    "trav": 1604,
    "entonc": 1605,
    "entonce": 1606,
    "entonces</w>": 1607,
    "por": 1608,
    "ebrero</w>": 1609,
    "enas</w>": 1610,
    "lanc": 1611,
    "febrero</w>": 1612,
    "francia</w>": 1613,
    "otro</w>": 1614,
    "oducción</w>": 1615,
    "roducción</w>": 1616,
    "pueden</w>": 1617,
    "lic": 1618,
    "ecciones</w>": 1619,
    "comi": 1620,
    "mini": 1621,
    "ctores</w>": 1622,
    "meros</w>": 1623,
    "naci": 1624,
    "untos</w>": 1625,
    "constr": 1626,
    "cla": 1627,
    "pios</w>": 1628,
    "escrib": 1629,
    "constru": 1630,
    "ell": 1631,
    "gen": 1632,
    "terri": 1633,
    "medio</w>": 1634,
    "ni</w>": 1635,
    "rden</w>": 1636,
    "ee": 1637,
    "ám": 1638,
    "uación</w>": 1639,
    "andes</w>": 1640,
    "eli": 1641,
    "orden</w>": 1642,
    "gh": 1643,
    "comple": 1644,
    "empl": 1645,
    "bor": 1646,
    "iene": 1647,
    "nación</w>": 1648,
    "chil": 1649,
    "cuerd": 1650,
    "inf": 1651,
    "hay</w>": 1652,
    "clar": 1653,
    "iglesia</w>": 1654,
    "terí": 1655,
    "elección</w>": 1656,
    "cap": 1657,
    "inst": 1658,
    "conocido</w>": 1659,
    "santa</w>": 1660,
    "ormente</w>": 1661,
    "ese": 1662,
    "obras</w>": 1663,
    "onato</w>": 1664,
    "ide": 1665,
    "barc": 1666,
    "irig": 1667,
    "biert": 1668,
    "tiva</w>": 1669,
    "travé": 1670,
    "través</w>": 1671,
    "segundo</w>": 1672,
    "dirig": 1673,
    "ectos</w>": 1674,
    "resu": 1675,
    "yl": 1676,
    "uso</w>": 1677,
    "etros</w>": 1678,
    "sado</w>": 1679,
    "oa": 1680,
    "corr": 1681,
    "trabajo</w>": 1682,
    "alle</w>": 1683,
    "metros</w>": 1684,
    "divis": 1685,
    "dense</w>": 1686,
    "especia": 1687,
    "iencia</w>": 1688,
    "cant": 1689,
    "bitantes</w>": 1690,
    "abitantes</w>": 1691,
    "habitantes</w>": 1692,
    "emplo</w>": 1693,
    "enca": 1694,
    "uesta</w>": 1695,
    "termina": 1696,
    "zona</w>": 1697,
    "rlos</w>": 1698,
    "inalmente</w>": 1699,
    "zu": 1700,
    "pital</w>": 1701,
    "lon": 1702,
    "banda</w>": 1703,
    "directo": 1704,
    "ow": 1705,
    "unid": 1706,
    "ven</w>": 1707,
    "compañ": 1708,
    "ke</w>": 1709,
    "idense</w>": 1710,
    "all</w>": 1711,
    "nidense</w>": 1712,
    "iormente</w>": 1713,
    "riormente</w>": 1714,
    "eriormente</w>": 1715,
    "unidense</w>": 1716,
    "ye</w>": 1717,
    "bles</w>": 1718,
    "ounidense</w>": 1719,
    "dounidense</w>": 1720,
    "adounidense</w>": 1721,
    "tadounidense</w>": 1722,
    "stadounidense</w>": 1723,
    "estadounidense</w>": 1724,
    "teriormente</w>": 1725,
    "inales</w>": 1726,
    "divisi": 1727,
    "anción</w>": 1728,
    "permit": 1729,
    "bs": 1730,
    "icada</w>": 1731,
    "especie</w>": 1732,
    "ferencia</w>": 1733,
    "oeste</w>": 1734,
    "gado</w>": 1735,
    "camb": 1736,
    "eonato</w>": 1737,
    "peonato</w>": 1738,
    "mpeonato</w>": 1739,
    "ampeonato</w>": 1740,
    "campeonato</w>": 1741,
    "censo</w>": 1742,
    "dentro</w>": 1743,
    "merci": 1744,
    "interp": 1745,
    "lanz": 1746,
    "ican": 1747,
    "arlos</w>": 1748,
    "ceso</w>": 1749,
    "caciones</w>": 1750,
    "ienen</w>": 1751,
    "tipo</w>": 1752,
    "ley</w>": 1753,
    "rales</w>": 1754,
    "canción</w>": 1755,
    "tidos</w>": 1756,
    "oh": 1757,
    "recibi": 1758,
    "versió": 1759,
    "versión</w>": 1760,
    "gación</w>": 1761,
    "eda": 1762,
    "lici": 1763,
    "inas</w>": 1764,
    "omerci": 1765,
    "comerci": 1766,
    "prod": 1767,
    "personaj": 1768,
    "vel</w>": 1769,
    "org": 1770,
    "damente</w>": 1771,
    "sie": 1772,
    "chile</w>": 1773,
    "vert": 1774,
    "ele": 1775,
    "tencia</w>": 1776,
    "american": 1777,
    "oz": 1778,
    "oq": 1779,
    "conda": 1780,
    "produ": 1781,
    "feri": 1782,
    "lim": 1783,
    "has</w>": 1784,
    "andi": 1785,
    "arse</w>": 1786,
    "eces</w>": 1787,
    "iana</w>": 1788,
    "enom": 1789,
    "hiz": 1790,
    "arma": 1791,
    "distrit": 1792,
    "roc": 1793,
    "jé": 1794,
    "cerca</w>": 1795,
    "nea</w>": 1796,
    "divisió": 1797,
    "división</w>": 1798,
    "franc": 1799,
    "laciones</w>": 1800,
    "edera": 1801,
    "condad": 1802,
    "condado</w>": 1803,
    "producción</w>": 1804,
    "edr": 1805,
    "cambi": 1806,
    "color</w>": 1807,
    "he</w>": 1808,
    "hizo</w>": 1809,
    "espec": 1810,
    "interpr": 1811,
    "muerte</w>": 1812,
    "empres": 1813,
    "alidades</w>": 1814,
    "mada</w>": 1815,
    "interpre": 1816,
    "ect": 1817,
    "usi": 1818,
    "repú": 1819,
    "interpret": 1820,
    "uras</w>": 1821,
    "federa": 1822,
    "derr": 1823,
    "ff": 1824,
    "ínea</w>": 1825,
    "línea</w>": 1826,
    "arde</w>": 1827,
    "cali": 1828,
    "ik": 1829,
    "rucción</w>": 1830,
    "trucción</w>": 1831,
    "strucción</w>": 1832,
    "dera</w>": 1833,
    "plan": 1834,
    "repúb": 1835,
    "repúbl": 1836,
    "repúbli": 1837,
    "repúblic": 1838,
    "república</w>": 1839,
    "distrito</w>": 1840,
    "iera</w>": 1841,
    "ienta": 1842,
    "arti": 1843,
    "ls": 1844,
    "están</w>": 1845,
    "mbres</w>": 1846,
    "cuela</w>": 1847,
    "copa</w>": 1848,
    "partir</w>": 1849,
    "desta": 1850,
    "territ": 1851,
    "jere": 1852,
    "esca": 1853,
    "mn": 1854,
    "territo": 1855,
    "culas</w>": 1856,
    "territor": 1857,
    "rados</w>": 1858,
    "chas</w>": 1859,
    "rom": 1860,
    "ré": 1861,
    "ts</w>": 1862,
    "ctoria</w>": 1863,
    "ster": 1864,
    "territori": 1865,
    "agua</w>": 1866,
    "ee</w>": 1867,
    "esos</w>": 1868,
    "ensa</w>": 1869,
    "uchos</w>": 1870,
    "tienen</w>": 1871,
    "ét": 1872,
    "hijo</w>": 1873,
    "ná": 1874,
    "cito</w>": 1875,
    "enció": 1876,
    "poca</w>": 1877,
    "nera</w>": 1878,
    "ención</w>": 1879,
    "ranci": 1880,
    "conse": 1881,
    "leci": 1882,
    "padr": 1883,
    "randes</w>": 1884,
    "sent": 1885,
    "grandes</w>": 1886,
    "mbros</w>": 1887,
    "fir": 1888,
    "cir": 1889,
    "uiente</w>": 1890,
    "guiente</w>": 1891,
    "iguiente</w>": 1892,
    "siguiente</w>": 1893,
    "dado</w>": 1894,
    "char": 1895,
    "tierra</w>": 1896,
    "dav": 1897,
    "dirigi": 1898,
    "tarde</w>": 1899,
    "tenid": 1900,
    "tural</w>": 1901,
    "fica</w>": 1902,
    "franci": 1903,
    "pol": 1904,
    "orí": 1905,
    "entre": 1906,
    "use": 1907,
    "nado</w>": 1908,
    "poco</w>": 1909,
    "yó</w>": 1910,
    "destac": 1911,
    "arqui": 1912,
    "acción</w>": 1913,
    "alta</w>": 1914,
    "acidos</w>": 1915,
    "arte</w>": 1916,
    "uman": 1917,
    "nacidos</w>": 1918,
    "period": 1919,
    "dese": 1920,
    "env": 1921,
    "lar</w>": 1922,
    "lli": 1923,
    "ficación</w>": 1924,
    "só": 1925,
    "war": 1926,
    "icaciones</w>": 1927,
    "ane": 1928,
    "fon": 1929,
    "ito</w>": 1930,
    "radi": 1931,
    "alo": 1932,
    "ipios</w>": 1933,
    "ombres</w>": 1934,
    "cipios</w>": 1935,
    "eino</w>": 1936,
    "desarrollo</w>": 1937,
    "nces": 1938,
    "rp": 1939,
    "énero</w>": 1940,
    "género</w>": 1941,
    "muchos</w>": 1942,
    "ine</w>": 1943,
    "otra</w>": 1944,
    "cult": 1945,
    "ori": 1946,
    "men</w>": 1947,
    "reino</w>": 1948,
    "izado</w>": 1949,
    "ul</w>": 1950,
    "ry</w>": 1951,
    "largo</w>": 1952,
    "mino</w>": 1953,
    "lítica</w>": 1954,
    "tancia</w>": 1955,
    "util": 1956,
    "ciente</w>": 1957,
    "rogra": 1958,
    "resul": 1959,
    "olítica</w>": 1960,
    "result": 1961,
    "progra": 1962,
    "jas</w>": 1963,
    "carlos</w>": 1964,
    "gunas</w>": 1965,
    "liga</w>": 1966,
    "íg": 1967,
    "lones</w>": 1968,
    "udios</w>": 1969,
    "oca": 1970,
    "anim": 1971,
    "política</w>": 1972,
    "gn</w>": 1973,
    "tul": 1974,
    "omento</w>": 1975,
    "escrito": 1976,
    "tamento</w>": 1977,
    "lecciones</w>": 1978,
    "echo</w>": 1979,
    "rentes</w>": 1980,
    "comb": 1981,
    "sí": 1982,
    "convi": 1983,
    "días</w>": 1984,
    "rcito</w>": 1985,
    "ciert": 1986,
    "torn": 1987,
    "anciones</w>": 1988,
    "umenta": 1989,
    "embros</w>": 1990,
    "iembros</w>": 1991,
    "miembros</w>": 1992,
    "ificación</w>": 1993,
    "ército</w>": 1994,
    "tudios</w>": 1995,
    "studios</w>": 1996,
    "gana": 1997,
    "jército</w>": 1998,
    "ejército</w>": 1999,
    "ada": 2000,
    "estruc": 2001,
    "utili": 2002,
    "ículas</w>": 2003,
    "ger": 2004,
    "estruct": 2005,
    "program": 2006,
    "padre</w>": 2007,
    "iq": 2008,
    "esio": 2009,
    "scuela</w>": 2010,
    "escuela</w>": 2011,
    "ann": 2012,
    "oder": 2013,
    "esion": 2014,
    "siones</w>": 2015,
    "tual</w>": 2016,
    "tom": 2017,
    "der</w>": 2018,
    "socie": 2019,
    "lículas</w>": 2020,
    "elículas</w>": 2021,
    "películas</w>": 2022,
    "ki</w>": 2023,
    "zada</w>": 2024,
    "eles</w>": 2025,
    "menos</w>": 2026,
    "érica</w>": 2027,
    "iles</w>": 2028,
    "ves</w>": 2029,
    "tada</w>": 2030,
    "comenzó</w>": 2031,
    "frente</w>": 2032,
    "lución</w>": 2033,
    "ifici": 2034,
    "ical</w>": 2035,
    "varias</w>": 2036,
    "dres</w>": 2037,
    "unci": 2038,
    "canciones</w>": 2039,
    "él": 2040,
    "pue": 2041,
    "calidades</w>": 2042,
    "ujere": 2043,
    "ht</w>": 2044,
    "tales</w>": 2045,
    "director</w>": 2046,
    "ivamente</w>": 2047,
    "éd": 2048,
    "olución</w>": 2049,
    "ujeres</w>": 2050,
    "mujeres</w>": 2051,
    "qued": 2052,
    "central</w>": 2053,
    "uencia</w>": 2054,
    "del": 2055,
    "ocalidades</w>": 2056,
    "localidades</w>": 2057,
    "tulo</w>": 2058,
    "pueb": 2059,
    "puebl": 2060,
    "pueblo</w>": 2061,
    "hr": 2062,
    "contra": 2063,
    "cur": 2064,
    "forma": 2065,
    "lgunas</w>": 2066,
    "algunas</w>": 2067,
    "revis": 2068,
    "eh": 2069,
    "programa</w>": 2070,
    "ítulo</w>": 2071,
    "convir": 2072,
    "convirt": 2073,
    "título</w>": 2074,
    "convirti": 2075,
    "ateri": 2076,
    "oría</w>": 2077,
    "bos</w>": 2078,
    "ferr": 2079,
    "disc": 2080,
    "lcan": 2081,
    "conti": 2082,
    "wo": 2083,
    "nstrucción</w>": 2084,
    "icar": 2085,
    "alto</w>": 2086,
    "presi": 2087,
    "anton": 2088,
    "ref": 2089,
    "participa": 2090,
    "anda": 2091,
    "york</w>": 2092,
    "zas</w>": 2093,
    "colom": 2094,
    "pode": 2095,
    "ngres": 2096,
    "cine</w>": 2097,
    "meni": 2098,
    "uente</w>": 2099,
    "odas</w>": 2100,
    "lico</w>": 2101,
    "ka</w>": 2102,
    "poder</w>": 2103,
    "uier": 2104,
    "francis": 2105,
    "momento</w>": 2106,
    "uera</w>": 2107,
    "siti": 2108,
    "bien</w>": 2109,
    "alig": 2110,
    "verti": 2111,
    "edad</w>": 2112,
    "tici": 2113,
    "imeros</w>": 2114,
    "rimeros</w>": 2115,
    "primeros</w>": 2116,
    "francisc": 2117,
    "cip": 2118,
    "uard": 2119,
    "ram": 2120,
    "quier": 2121,
    "utiliz": 2122,
    "imientos</w>": 2123,
    "alemani": 2124,
    "iciona": 2125,
    "alemania</w>": 2126,
    "rgan": 2127,
    "pas</w>": 2128,
    "oro</w>": 2129,
    "rtidos</w>": 2130,
    "dic": 2131,
    "ok": 2132,
    "artidos</w>": 2133,
    "partidos</w>": 2134,
    "espon": 2135,
    "finales</w>": 2136,
    "amado</w>": 2137,
    "hace</w>": 2138,
    "cales</w>": 2139,
    "selección</w>": 2140,
    "aparec": 2141,
    "contro": 2142,
    "arra": 2143,
    "iados</w>": 2144,
    "ayor": 2145,
    "llones</w>": 2146,
    "mayor": 2147,
    "nados</w>": 2148,
    "consi": 2149,
    "man</w>": 2150,
    "íses</w>": 2151,
    "aíses</w>": 2152,
    "países</w>": 2153,
    "último</w>": 2154,
    "manos</w>": 2155,
    "colomb": 2156,
    "enda": 2157,
    "och": 2158,
    "web</w>": 2159,
    "caso</w>": 2160,
    "eses</w>": 2161,
    "align</w>": 2162,
    "nización</w>": 2163,
    "erentes</w>": 2164,
    "perd": 2165,
    "cre": 2166,
    "gober": 2167,
    "blanc": 2168,
    "muse": 2169,
    "vene": 2170,
    "contin": 2171,
    "vuel": 2172,
    "cient": 2173,
    "estructu": 2174,
    "estructur": 2175,
    "lber": 2176,
    "ocalidad</w>": 2177,
    "localidad</w>": 2178,
    "rtamento</w>": 2179,
    "picos</w>": 2180,
    "artamento</w>": 2181,
    "partamento</w>": 2182,
    "uipos</w>": 2183,
    "quipos</w>": 2184,
    "equipos</w>": 2185,
    "cuerp": 2186,
    "asi": 2187,
    "estudios</w>": 2188,
    "nunci": 2189,
    "lui": 2190,
    "áp": 2191,
    "bras": 2192,
    "oras</w>": 2193,
    "sit": 2194,
    "ara</w>": 2195,
    "gó": 2196,
    "lla": 2197,
    "sitio</w>": 2198,
    "gobern": 2199,
    "puerto</w>": 2200,
    "proy": 2201,
    "proye": 2202,
    "proyec": 2203,
    "proyect": 2204,
    "pé": 2205,
    "época</w>": 2206,
    "joh": 2207,
    "nm": 2208,
    "talla</w>": 2209,
    "tur": 2210,
    "isb": 2211,
    "leng": 2212,
    "alcan": 2213,
    "civ": 2214,
    "anz": 2215,
    "enomi": 2216,
    "senci": 2217,
    "fern": 2218,
    "enomin": 2219,
    "denomin": 2220,
    "ferentes</w>": 2221,
    "ivel</w>": 2222,
    "colombi": 2223,
    "arí": 2224,
    "juego</w>": 2225,
    "mit": 2226,
    "moni": 2227,
    "enr": 2228,
    "upos</w>": 2229,
    "ax": 2230,
    "sencil": 2231,
    "sencill": 2232,
    "anteri": 2233,
    "luis</w>": 2234,
    "geni": 2235,
    "lemente</w>": 2236,
    "firm": 2237,
    "eatro</w>": 2238,
    "anera</w>": 2239,
    "teatro</w>": 2240,
    "pop": 2241,
    "ael</w>": 2242,
    "adu": 2243,
    "anterio": 2244,
    "tario</w>": 2245,
    "misma</w>": 2246,
    "egres": 2247,
    "iel</w>": 2248,
    "pó": 2249,
    "onstrucción</w>": 2250,
    "construcción</w>": 2251,
    "ítico</w>": 2252,
    "oración</w>": 2253,
    "artis": 2254,
    "nivel</w>": 2255,
    "rupos</w>": 2256,
    "grupos</w>": 2257,
    "meno": 2258,
    "ros": 2259,
    "todas</w>": 2260,
    "epartamento</w>": 2261,
    "departamento</w>": 2262,
    "pesa": 2263,
    "cart": 2264,
    "ald": 2265,
    "mayorí": 2266,
    "mayoría</w>": 2267,
    "respon": 2268,
    "conoc": 2269,
    "ense": 2270,
    "entu": 2271,
    "goberna": 2272,
    "comunid": 2273,
    "comunida": 2274,
    "tualmente</w>": 2275,
    "fe</w>": 2276,
    "áb": 2277,
    "mérica</w>": 2278,
    "elación</w>": 2279,
    "derro": 2280,
    "eso</w>": 2281,
    "gas</w>": 2282,
    "materi": 2283,
    "illones</w>": 2284,
    "nn": 2285,
    "sla</w>": 2286,
    "espect": 2287,
    "liografía</w>": 2288,
    "asti": 2289,
    "bliografía</w>": 2290,
    "ibliografía</w>": 2291,
    "bibliografía</w>": 2292,
    "sf": 2293,
    "steriormente</w>": 2294,
    "francisco</w>": 2295,
    "osteriormente</w>": 2296,
    "posteriormente</w>": 2297,
    "rq": 2298,
    "conta": 2299,
    "unió": 2300,
    "unión</w>": 2301,
    "proyecto</w>": 2302,
    "arquit": 2303,
    "artist": 2304,
    "puesta</w>": 2305,
    "insti": 2306,
    "complet": 2307,
    "iferentes</w>": 2308,
    "diferentes</w>": 2309,
    "entid": 2310,
    "eno</w>": 2311,
    "arquite": 2312,
    "arquitec": 2313,
    "arquitect": 2314,
    "trat": 2315,
    "instit": 2316,
    "institu": 2317,
    "libro</w>": 2318,
    "cinc": 2319,
    "lamado</w>": 2320,
    "wor": 2321,
    "elecciones</w>": 2322,
    "ly": 2323,
    "tan</w>": 2324,
    "có</w>": 2325,
    "cados</w>": 2326,
    "américa</w>": 2327,
    "culos</w>": 2328,
    "manera</w>": 2329,
    "regres": 2330,
    "cord": 2331,
    "mi</w>": 2332,
    "lizado</w>": 2333,
    "escribi": 2334,
    "millones</w>": 2335,
    "oles</w>": 2336,
    "ñola</w>": 2337,
    "base</w>": 2338,
    "bas</w>": 2339,
    "jemplo</w>": 2340,
    "ejemplo</w>": 2341,
    "mie": 2342,
    "añola</w>": 2343,
    "pañola</w>": 2344,
    "spañola</w>": 2345,
    "española</w>": 2346,
    "íd": 2347,
    "ducid": 2348,
    "arte": 2349,
    "gri": 2350,
    "umento</w>": 2351,
    "zi": 2352,
    "temas</w>": 2353,
    "ivas</w>": 2354,
    "ts": 2355,
    "apo": 2356,
    "queñ": 2357,
    "itera": 2358,
    "encio": 2359,
    "litar</w>": 2360,
    "ilitar</w>": 2361,
    "biografía</w>": 2362,
    "ní": 2363,
    "icios</w>": 2364,
    "stación</w>": 2365,
    "talia</w>": 2366,
    "rtante</w>": 2367,
    "ortante</w>": 2368,
    "portante</w>": 2369,
    "ine": 2370,
    "cinco</w>": 2371,
    "isla</w>": 2372,
    "especie": 2373,
    "especies</w>": 2374,
    "mportante</w>": 2375,
    "importante</w>": 2376,
    "tamiento</w>": 2377,
    "finalmente</w>": 2378,
    "brasi": 2379,
    "acuerd": 2380,
    "datos</w>": 2381,
    "dm": 2382,
    "ñas</w>": 2383,
    "uperio": 2384,
    "cole": 2385,
    "superio": 2386,
    "apital</w>": 2387,
    "posi": 2388,
    "nj": 2389,
    "capital</w>": 2390,
    "construi": 2391,
    "estudio</w>": 2392,
    "estación</w>": 2393,
    "ienz": 2394,
    "antoni": 2395,
    "militar</w>": 2396,
    "cau": 2397,
    "hora</w>": 2398,
    "ji": 2399,
    "fesion": 2400,
    "tar</w>": 2401,
    "tod": 2402,
    "onal</w>": 2403,
    "estiv": 2404,
    "pación</w>": 2405,
    "conce": 2406,
    "raci": 2407,
    "veces</w>": 2408,
    "civi": 2409,
    "ances": 2410,
    "rances": 2411,
    "frances": 2412,
    "imos</w>": 2413,
    "gran": 2414,
    "igen</w>": 2415,
    "hecho</w>": 2416,
    "ller": 2417,
    "ze": 2418,
    "uestra</w>": 2419,
    "amo": 2420,
    "oli": 2421,
    "ires</w>": 2422,
    "equeñ": 2423,
    "pequeñ": 2424,
    "cog": 2425,
    "die": 2426,
    "at</w>": 2427,
    "inicia": 2428,
    "socied": 2429,
    "socieda": 2430,
    "miem": 2431,
    "miemb": 2432,
    "miembr": 2433,
    "produc": 2434,
    "derrot": 2435,
    "miembro</w>": 2436,
    "ques</w>": 2437,
    "ello</w>": 2438,
    "municipa": 2439,
    "arra</w>": 2440,
    "vieron</w>": 2441,
    "diciones</w>": 2442,
    "compañí": 2443,
    "diciona": 2444,
    "rección</w>": 2445,
    "iu": 2446,
    "entren": 2447,
    "litera": 2448,
    "ofesion": 2449,
    "rofesion": 2450,
    "profesion": 2451,
    "llamado</w>": 2452,
    "ritos</w>": 2453,
    "uz": 2454,
    "divers": 2455,
    "hy": 2456,
    "villa</w>": 2457,
    "artí": 2458,
    "punto</w>": 2459,
    "ly</w>": 2460,
    "institut": 2461,
    "ino": 2462,
    "elos</w>": 2463,
    "encion": 2464,
    "convirtió</w>": 2465,
    "john</w>": 2466,
    "museo</w>": 2467,
    "ciendo</w>": 2468,
    "ganó</w>": 2469,
    "cultu": 2470,
    "lados</w>": 2471,
    "mperi": 2472,
    "cultur": 2473,
    "ten</w>": 2474,
    "estudia": 2475,
    "lización</w>": 2476,
    "uz</w>": 2477,
    "mando</w>": 2478,
    "quer": 2479,
    "red</w>": 2480,
    "interpreta": 2481,
    "dich": 2482,
    "italia</w>": 2483,
    "rias</w>": 2484,
    "profesiona": 2485,
    "ti</w>": 2486,
    "uenos</w>": 2487,
    "anunci": 2488,
    "acer": 2489,
    "tuación</w>": 2490,
    "mpicos</w>": 2491,
    "fo</w>": 2492,
    "imperi": 2493,
    "rez</w>": 2494,
    "costa</w>": 2495,
    "anización</w>": 2496,
    "organ": 2497,
    "fico</w>": 2498,
    "yendo</w>": 2499,
    "taciones</w>": 2500,
    "habe": 2501,
    "isbn</w>": 2502,
    "minis": 2503,
    "ímpicos</w>": 2504,
    "límpicos</w>": 2505,
    "buenos</w>": 2506,
    "haber</w>": 2507,
    "ificio</w>": 2508,
    "cargo</w>": 2509,
    "festiv": 2510,
    "dej": 2511,
    "social": 2512,
    "human": 2513,
    "europa</w>": 2514,
    "estil": 2515,
    "feso": 2516,
    "plat": 2517,
    "servicio</w>": 2518,
    "barce": 2519,
    "ctualmente</w>": 2520,
    "barcel": 2521,
    "fund": 2522,
    "mera": 2523,
    "superf": 2524,
    "lengu": 2525,
    "fra": 2526,
    "ende</w>": 2527,
    "diente</w>": 2528,
    "actualmente</w>": 2529,
    "comercia": 2530,
    "cru": 2531,
    "nó": 2532,
    "rigen</w>": 2533,
    "nacional": 2534,
    "ando": 2535,
    "écada</w>": 2536,
    "década</w>": 2537,
    "entrena": 2538,
    "alq": 2539,
    "barcelo": 2540,
    "ellas</w>": 2541,
    "barcelon": 2542,
    "alqu": 2543,
    "cn": 2544,
    "ofeso": 2545,
    "rofeso": 2546,
    "profeso": 2547,
    "pel</w>": 2548,
    "popu": 2549,
    "posib": 2550,
    "conocida</w>": 2551,
    "puntos</w>": 2552,
    "ut</w>": 2553,
    "área</w>": 2554,
    "estat": 2555,
    "ano": 2556,
    "ion": 2557,
    "organi": 2558,
    "etos</w>": 2559,
    "esco": 2560,
    "popul": 2561,
    "mografía</w>": 2562,
    "terís": 2563,
    "cterís": 2564,
    "acterís": 2565,
    "acteríst": 2566,
    "acterísti": 2567,
    "acterístic": 2568,
    "racterístic": 2569,
    "aracterístic": 2570,
    "característic": 2571,
    "alqui": 2572,
    "gente</w>": 2573,
    "cultura</w>": 2574,
    "sab": 2575,
    "anima": 2576,
    "hace": 2577,
    "serí": 2578,
    "senta</w>": 2579,
    "bo</w>": 2580,
    "areci": 2581,
    "izada</w>": 2582,
    "campo</w>": 2583,
    "principal": 2584,
    "social</w>": 2585,
    "esenta</w>": 2586,
    "nserva": 2587,
    "onserva": 2588,
    "istó": 2589,
    "enda</w>": 2590,
    "conserva": 2591,
    "principale": 2592,
    "principales</w>": 2593,
    "alcanz": 2594,
    "arl": 2595,
    "hacer</w>": 2596,
    "neg": 2597,
    "revist": 2598,
    "ic</w>": 2599,
    "toda</w>": 2600,
    "iante</w>": 2601,
    "mano</w>": 2602,
    "pareci": 2603,
    "moder": 2604,
    "ém": 2605,
    "log": 2606,
    "antonio</w>": 2607,
    "continu": 2608,
    "tivamente</w>": 2609,
    "barcelona</w>": 2610,
    "apoy": 2611,
    "popula": 2612,
    "bes</w>": 2613,
    "ciudad": 2614,
    "sesi": 2615,
    "gada</w>": 2616,
    "ae": 2617,
    "rci": 2618,
    "tercer": 2619,
    "cuerpo</w>": 2620,
    "viv": 2621,
    "inclus": 2622,
    "antia": 2623,
    "popular</w>": 2624,
    "derecho</w>": 2625,
    "spaci": 2626,
    "ctual</w>": 2627,
    "actual</w>": 2628,
    "econ": 2629,
    "casi</w>": 2630,
    "origen</w>": 2631,
    "vivi": 2632,
    "amenta": 2633,
    "minist": 2634,
    "mpera": 2635,
    "fuera</w>": 2636,
    "amas</w>": 2637,
    "denomina": 2638,
    "dó": 2639,
    "mienz": 2640,
    "omienz": 2641,
    "comienz": 2642,
    "ós": 2643,
    "sei": 2644,
    "cuy": 2645,
    "alber": 2646,
    "diante</w>": 2647,
    "ubiert": 2648,
    "cubiert": 2649,
    "monio</w>": 2650,
    "aires</w>": 2651,
    "nicos</w>": 2652,
    "había": 2653,
    "habían</w>": 2654,
    "info": 2655,
    "acuerdo</w>": 2656,
    "ediante</w>": 2657,
    "mediante</w>": 2658,
    "lada</w>": 2659,
    "mbos</w>": 2660,
    "espaci": 2661,
    "trib": 2662,
    "ami": 2663,
    "superfi": 2664,
    "íticos</w>": 2665,
    "bla": 2666,
    "pli": 2667,
    "den": 2668,
    "olímpicos</w>": 2669,
    "ctiv": 2670,
    "seman": 2671,
    "cuales</w>": 2672,
    "superfic": 2673,
    "superfici": 2674,
    "irección</w>": 2675,
    "dirección</w>": 2676,
    "much": 2677,
    "hombres</w>": 2678,
    "venez": 2679,
    "by</w>": 2680,
    "ste": 2681,
    "ocal</w>": 2682,
    "sociedad</w>": 2683,
    "rede": 2684,
    "llan": 2685,
    "estilo</w>": 2686,
    "perú</w>": 2687,
    "cri": 2688,
    "ío</w>": 2689,
    "bicado</w>": 2690,
    "edro</w>": 2691,
    "ubicado</w>": 2692,
    "oe": 2693,
    "gador</w>": 2694,
    "ganización</w>": 2695,
    "rganización</w>": 2696,
    "organización</w>": 2697,
    "marca</w>": 2698,
    "ciación</w>": 2699,
    "nor": 2700,
    "igación</w>": 2701,
    "íos</w>": 2702,
    "bución</w>": 2703,
    "ibución</w>": 2704,
    "ribución</w>": 2705,
    "tribución</w>": 2706,
    "conj": 2707,
    "brit": 2708,
    "ática</w>": 2709,
    "media</w>": 2710,
    "emeni": 2711,
    "eños</w>": 2712,
    "endencia</w>": 2713,
    "torne": 2714,
    "tare": 2715,
    "orge</w>": 2716,
    "femeni": 2717,
    "adiciona": 2718,
    "asado</w>": 2719,
    "apel</w>": 2720,
    "empera": 2721,
    "eras</w>": 2722,
    "reded": 2723,
    "rededo": 2724,
    "rededor</w>": 2725,
    "lrededor</w>": 2726,
    "alrededor</w>": 2727,
    "ambos</w>": 2728,
    "dentes</w>": 2729,
    "pesar</w>": 2730,
    "torneo</w>": 2731,
    "adamente</w>": 2732,
    "grado</w>": 2733,
    "recibió</w>": 2734,
    "nformación</w>": 2735,
    "pedro</w>": 2736,
    "dación</w>": 2737,
    "interi": 2738,
    "sá": 2739,
    "encar": 2740,
    "fa</w>": 2741,
    "alu": 2742,
    "tenido</w>": 2743,
    "rienta": 2744,
    "deri": 2745,
    "francé": 2746,
    "francés</w>": 2747,
    "vimiento</w>": 2748,
    "sterio</w>": 2749,
    "blico</w>": 2750,
    "resulta": 2751,
    "destaca": 2752,
    "instituto</w>": 2753,
    "ajos</w>": 2754,
    "bá": 2755,
    "mat": 2756,
    "sta": 2757,
    "modern": 2758,
    "plaz": 2759,
    "femenin": 2760,
    "llegó</w>": 2761,
    "orienta": 2762,
    "zados</w>": 2763,
    "rod": 2764,
    "onia</w>": 2765,
    "ovimiento</w>": 2766,
    "movimiento</w>": 2767,
    "stencia</w>": 2768,
    "istencia</w>": 2769,
    "ód": 2770,
    "parí": 2771,
    "materia": 2772,
    "illi": 2773,
    "calif": 2774,
    "pp": 2775,
    "denta": 2776,
    "echa</w>": 2777,
    "conju": 2778,
    "unido</w>": 2779,
    "inación</w>": 2780,
    "antant": 2781,
    "lítico</w>": 2782,
    "alquie": 2783,
    "alquier</w>": 2784,
    "lencia</w>": 2785,
    "indu": 2786,
    "dificio</w>": 2787,
    "edificio</w>": 2788,
    "libera": 2789,
    "ualquier</w>": 2790,
    "sh</w>": 2791,
    "cualquier</w>": 2792,
    "ginal</w>": 2793,
    "ecimiento</w>": 2794,
    "olítico</w>": 2795,
    "universit": 2796,
    "pert": 2797,
    "osos</w>": 2798,
    "ner": 2799,
    "ila</w>": 2800,
    "festiva": 2801,
    "ning": 2802,
    "endid": 2803,
    "eti": 2804,
    "compr": 2805,
    "mios</w>": 2806,
    "ional</w>": 2807,
    "uientes</w>": 2808,
    "guientes</w>": 2809,
    "iguientes</w>": 2810,
    "siguientes</w>": 2811,
    "entos</w>": 2812,
    "ven": 2813,
    "simi": 2814,
    "resenta</w>": 2815,
    "presenta</w>": 2816,
    "ande</w>": 2817,
    "papel</w>": 2818,
    "sterio": 2819,
    "revista</w>": 2820,
    "ij": 2821,
    "compo": 2822,
    "imonio</w>": 2823,
    "rimonio</w>": 2824,
    "trimonio</w>": 2825,
    "atrimonio</w>": 2826,
    "iginal</w>": 2827,
    "riginal</w>": 2828,
    "original</w>": 2829,
    "parís</w>": 2830,
    "información</w>": 2831,
    "ora": 2832,
    "úblico</w>": 2833,
    "público</w>": 2834,
    "hi</w>": 2835,
    "li</w>": 2836,
    "hina</w>": 2837,
    "ku": 2838,
    "bajos</w>": 2839,
    "estuv": 2840,
    "aw": 2841,
    "guard": 2842,
    "lp": 2843,
    "compañía</w>": 2844,
    "ministr": 2845,
    "uí": 2846,
    "uchas</w>": 2847,
    "porq": 2848,
    "porqu": 2849,
    "vela</w>": 2850,
    "tución</w>": 2851,
    "itución</w>": 2852,
    "titución</w>": 2853,
    "stitución</w>": 2854,
    "cola": 2855,
    "amada</w>": 2856,
    "xito</w>": 2857,
    "ugador</w>": 2858,
    "ganad": 2859,
    "éxito</w>": 2860,
    "jugador</w>": 2861,
    "ura</w>": 2862,
    "lanta": 2863,
    "umes</w>": 2864,
    "onter": 2865,
    "dirigid": 2866,
    "ny</w>": 2867,
    "brado</w>": 2868,
    "parq": 2869,
    "óv": 2870,
    "parqu": 2871,
    "cerca": 2872,
    "ucación</w>": 2873,
    "ducación</w>": 2874,
    "educación</w>": 2875,
    "político</w>": 2876,
    "dise": 2877,
    "gust": 2878,
    "pint": 2879,
    "merca": 2880,
    "operac": 2881,
    "operaci": 2882,
    "consu": 2883,
    "tigación</w>": 2884,
    "china</w>": 2885,
    "oceso</w>": 2886,
    "roceso</w>": 2887,
    "comunidad</w>": 2888,
    "santia": 2889,
    "santiag": 2890,
    "uyendo</w>": 2891,
    "ío": 2892,
    "lanza": 2893,
    "conjun": 2894,
    "porque</w>": 2895,
    "jer</w>": 2896,
    "conjunt": 2897,
    "cabo</w>": 2898,
    "bumes</w>": 2899,
    "lbumes</w>": 2900,
    "sb": 2901,
    "álbumes</w>": 2902,
    "lores</w>": 2903,
    "rober": 2904,
    "emios</w>": 2905,
    "stigación</w>": 2906,
    "europe": 2907,
    "ht": 2908,
    "reli": 2909,
    "und</w>": 2910,
    "estuvo</w>": 2911,
    "relación</w>": 2912,
    "estin": 2913,
    "fin</w>": 2914,
    "infor": 2915,
    "estigación</w>": 2916,
    "vestigación</w>": 2917,
    "nvestigación</w>": 2918,
    "investigación</w>": 2919,
    "santiago</w>": 2920,
    "ard</w>": 2921,
    "ujer</w>": 2922,
    "mujer</w>": 2923,
    "remios</w>": 2924,
    "rico</w>": 2925,
    "rock</w>": 2926,
    "sical</w>": 2927,
    "nuel</w>": 2928,
    "anuel</w>": 2929,
    "tem": 2930,
    "atalla</w>": 2931,
    "com</w>": 2932,
    "imenta": 2933,
    "ares</w>": 2934,
    "manuel</w>": 2935,
    "ans": 2936,
    "portu": 2937,
    "inform": 2938,
    "nicas</w>": 2939,
    "radas</w>": 2940,
    "batalla</w>": 2941,
    "cerr": 2942,
    "descrit": 2943,
    "cic": 2944,
    "vie": 2945,
    "empresa</w>": 2946,
    "superior</w>": 2947,
    "zó": 2948,
    "martí": 2949,
    "ático</w>": 2950,
    "mpli": 2951,
    "econó": 2952,
    "económ": 2953,
    "económi": 2954,
    "económic": 2955,
    "gina</w>": 2956,
    "madre</w>": 2957,
    "inte": 2958,
    "incluso</w>": 2959,
    "ló</w>": 2960,
    "proceso</w>": 2961,
    "premios</w>": 2962,
    "sede</w>": 2963,
    "plane": 2964,
    "marin": 2965,
    "dra": 2966,
    "debu": 2967,
    "di</w>": 2968,
    "blemente</w>": 2969,
    "neros</w>": 2970,
    "perí": 2971,
    "dados</w>": 2972,
    "diseñ": 2973,
    "bé": 2974,
    "via": 2975,
    "stancia</w>": 2976,
    "genes</w>": 2977,
    "nverti": 2978,
    "asos</w>": 2979,
    "consej": 2980,
    "sada</w>": 2981,
    "alm": 2982,
    "tivas</w>": 2983,
    "fuerza": 2984,
    "corp": 2985,
    "adm": 2986,
    "ecidos</w>": 2987,
    "fri": 2988,
    "tel</w>": 2989,
    "campe": 2990,
    "etas</w>": 2991,
    "new</w>": 2992,
    "especial": 2993,
    "rande</w>": 2994,
    "nada</w>": 2995,
    "venta": 2996,
    "ver</w>": 2997,
    "óp": 2998,
    "ño": 2999,
    "usical</w>": 3000,
    "omas</w>": 3001,
    "musical</w>": 3002,
    "colombia</w>": 3003,
    "fuerzas</w>": 3004,
    "ventu": 3005,
    "cara": 3006,
    "cadem": 3007,
    "cambio</w>": 3008,
    "britá": 3009,
    "britán": 3010,
    "británi": 3011,
    "británic": 3012,
    "plata</w>": 3013,
    "stribución</w>": 3014,
    "istribución</w>": 3015,
    "distribución</w>": 3016,
    "tensi": 3017,
    "entran</w>": 3018,
    "última</w>": 3019,
    "gon": 3020,
    "hes</w>": 3021,
    "ustr": 3022,
    "grande</w>": 3023,
    "lea": 3024,
    "llam": 3025,
    "sí</w>": 3026,
    "ictoria</w>": 3027,
    "victoria</w>": 3028,
    "ter</w>": 3029,
    "clas": 3030,
    "eclar": 3031,
    "vu": 3032,
    "declar": 3033,
    "ctivi": 3034,
    "histó": 3035,
    "histór": 3036,
    "históri": 3037,
    "territorio</w>": 3038,
    "parr": 3039,
    "sino</w>": 3040,
    "interio": 3041,
    "licado</w>": 3042,
    "rmas</w>": 3043,
    "ree": 3044,
    "uentes</w>": 3045,
    "arre": 3046,
    "seis</w>": 3047,
    "dob": 3048,
    "zc": 3049,
    "indus": 3050,
    "academ": 3051,
    "xx</w>": 3052,
    "cot": 3053,
    "udo</w>": 3054,
    "radio</w>": 3055,
    "upera": 3056,
    "indust": 3057,
    "llega": 3058,
    "lima</w>": 3059,
    "históric": 3060,
    "negr": 3061,
    "rtene": 3062,
    "logr": 3063,
    "dice</w>": 3064,
    "industr": 3065,
    "siem": 3066,
    "aterr": 3067,
    "ipción</w>": 3068,
    "ripción</w>": 3069,
    "cripción</w>": 3070,
    "scripción</w>": 3071,
    "ertene": 3072,
    "pertene": 3073,
    "estig": 3074,
    "apareci": 3075,
    "ferro": 3076,
    "hono": 3077,
    "vera": 3078,
    "unc": 3079,
    "jes": 3080,
    "escritor": 3081,
    "ton": 3082,
    "eado</w>": 3083,
    "muchas</w>": 3084,
    "eter": 3085,
    "hoy</w>": 3086,
    "zando</w>": 3087,
    "edios</w>": 3088,
    "eta": 3089,
    "sico</w>": 3090,
    "planta": 3091,
    "lamada</w>": 3092,
    "arch": 3093,
    "perdi": 3094,
    "pertenec": 3095,
    "át": 3096,
    "davi": 3097,
    "superficie</w>": 3098,
    "incluy": 3099,
    "denad": 3100,
    "ys": 3101,
    "rá</w>": 3102,
    "enfe": 3103,
    "vi</w>": 3104,
    "odio</w>": 3105,
    "car</w>": 3106,
    "transp": 3107,
    "caus": 3108,
    "lena</w>": 3109,
    "organiz": 3110,
    "ndres</w>": 3111,
    "identa": 3112,
    "ondres</w>": 3113,
    "londres</w>": 3114,
    "desarrolla": 3115,
    "apaci": 3116,
    "ncipios</w>": 3117,
    "incipios</w>": 3118,
    "rincipios</w>": 3119,
    "principios</w>": 3120,
    "tit": 3121,
    "ms</w>": 3122,
    "podr": 3123,
    "considerad": 3124,
    "bla</w>": 3125,
    "cen</w>": 3126,
    "taron</w>": 3127,
    "lari": 3128,
    "fuerza</w>": 3129,
    "transpo": 3130,
    "it</w>": 3131,
    "stros</w>": 3132,
    "campeó": 3133,
    "campeón</w>": 3134,
    "fuert": 3135,
    "mucho</w>": 3136,
    "disco</w>": 3137,
    "gare": 3138,
    "medios</w>": 3139,
    "presió": 3140,
    "presión</w>": 3141,
    "volución</w>": 3142,
    "acto": 3143,
    "aves</w>": 3144,
    "est</w>": 3145,
    "desem": 3146,
    "tro": 3147,
    "utos</w>": 3148,
    "uración</w>": 3149,
    "pón</w>": 3150,
    "urales</w>": 3151,
    "land</w>": 3152,
    "iencias</w>": 3153,
    "siemp": 3154,
    "cidenta": 3155,
    "ns</w>": 3156,
    "idencia</w>": 3157,
    "siempr": 3158,
    "siempre</w>": 3159,
    "ks</w>": 3160,
    "otas</w>": 3161,
    "yes</w>": 3162,
    "ngeni": 3163,
    "entemente</w>": 3164,
    "brasil</w>": 3165,
    "participó</w>": 3166,
    "bserva": 3167,
    "observa": 3168,
    "debe</w>": 3169,
    "evolución</w>": 3170,
    "licación</w>": 3171,
    "ingeni": 3172,
    "otos</w>": 3173,
    "perío": 3174,
    "períod": 3175,
    "ijos</w>": 3176,
    "consejo</w>": 3177,
    "transpor": 3178,
    "econo": 3179,
    "ciencia</w>": 3180,
    "actores</w>": 3181,
    "cruz</w>": 3182,
    "ines</w>": 3183,
    "libert": 3184,
    "nació</w>": 3185,
    "capaci": 3186,
    "actor</w>": 3187,
    "ccidenta": 3188,
    "coll": 3189,
    "sario</w>": 3190,
    "conjunto</w>": 3191,
    "palmente</w>": 3192,
    "uentran</w>": 3193,
    "cuentran</w>": 3194,
    "encuentran</w>": 3195,
    "eografía</w>": 3196,
    "ipalmente</w>": 3197,
    "cipalmente</w>": 3198,
    "ncipalmente</w>": 3199,
    "incipalmente</w>": 3200,
    "rincipalmente</w>": 3201,
    "principalmente</w>": 3202,
    "festival</w>": 3203,
    "nivers": 3204,
    "onas</w>": 3205,
    "jef": 3206,
    "aría</w>": 3207,
    "apón</w>": 3208,
    "spera": 3209,
    "fá": 3210,
    "viaj": 3211,
    "enter": 3212,
    "meses</w>": 3213,
    "enfer": 3214,
    "econom": 3215,
    "profesional</w>": 3216,
    "segu": 3217,
    "local</w>": 3218,
    "japón</w>": 3219,
    "laciona": 3220,
    "terio": 3221,
    "decid": 3222,
    "omin": 3223,
    "ienes</w>": 3224,
    "envi": 3225,
    "ormas</w>": 3226,
    "enferm": 3227,
    "quí": 3228,
    "ministro</w>": 3229,
    "ies</w>": 3230,
    "triz</w>": 3231,
    "hor": 3232,
    "transport": 3233,
    "servicio": 3234,
    "servicios</w>": 3235,
    "control</w>": 3236,
    "industri": 3237,
    "ach": 3238,
    "iado</w>": 3239,
    "geografía</w>": 3240,
    "personaje": 3241,
    "personajes</w>": 3242,
    "ngreso</w>": 3243,
    "tención</w>": 3244,
    "uda</w>": 3245,
    "worl": 3246,
    "onverti": 3247,
    "converti": 3248,
    "llamada</w>": 3249,
    "estaba": 3250,
    "ólo</w>": 3251,
    "sólo</w>": 3252,
    "sería</w>": 3253,
    "hombre</w>": 3254,
    "ases</w>": 3255,
    "estaban</w>": 3256,
    "sy": 3257,
    "lles</w>": 3258,
    "tración</w>": 3259,
    "meros": 3260,
    "mena": 3261,
    "tribu": 3262,
    "rist": 3263,
    "liano</w>": 3264,
    "entro": 3265,
    "tron": 3266,
    "escribió</w>": 3267,
    "civil</w>": 3268,
    "goría</w>": 3269,
    "reno</w>": 3270,
    "parad": 3271,
    "egoría</w>": 3272,
    "és": 3273,
    "alización</w>": 3274,
    "eciente</w>": 3275,
    "tegoría</w>": 3276,
    "ategoría</w>": 3277,
    "categoría</w>": 3278,
    "voz</w>": 3279,
    "ociación</w>": 3280,
    "uado</w>": 3281,
    "ri</w>": 3282,
    "allí</w>": 3283,
    "bli": 3284,
    "sencia</w>": 3285,
    "long": 3286,
    "cora": 3287,
    "ramas</w>": 3288,
    "este": 3289,
    "hija</w>": 3290,
    "prob": 3291,
    "emografía</w>": 3292,
    "demografía</w>": 3293,
    "espos": 3294,
    "pasó</w>": 3295,
    "ianos</w>": 3296,
    "gares</w>": 3297,
    "estre": 3298,
    "gobernad": 3299,
    "tercera</w>": 3300,
    "evos</w>": 3301,
    "son": 3302,
    "plaza</w>": 3303,
    "zaron</w>": 3304,
    "umeros": 3305,
    "numeros": 3306,
    "zá": 3307,
    "ence</w>": 3308,
    "ecesi": 3309,
    "leció</w>": 3310,
    "cientí": 3311,
    "científ": 3312,
    "científi": 3313,
    "científic": 3314,
    "íticas</w>": 3315,
    "cieron</w>": 3316,
    "uart": 3317,
    "alle": 3318,
    "sea</w>": 3319,
    "wh": 3320,
    "come": 3321,
    "lante</w>": 3322,
    "ostr": 3323,
    "isti": 3324,
    "enn": 3325,
    "eación</w>": 3326,
    "antiguo</w>": 3327,
    "edo</w>": 3328,
    "ciudade": 3329,
    "imero</w>": 3330,
    "áx": 3331,
    "dieron</w>": 3332,
    "canti": 3333,
    "mori": 3334,
    "willi": 3335,
    "entrenad": 3336,
    "lanta</w>": 3337,
    "odel": 3338,
    "arag": 3339,
    "rimero</w>": 3340,
    "primero</w>": 3341,
    "propio</w>": 3342,
    "oven</w>": 3343,
    "calle</w>": 3344,
    "cuencia</w>": 3345,
    "realizó</w>": 3346,
    "activi": 3347,
    "verd": 3348,
    "eri": 3349,
    "uciona": 3350,
    "canal</w>": 3351,
    "capacid": 3352,
    "capacida": 3353,
    "sigu": 3354,
    "personal</w>": 3355,
    "corre": 3356,
    "colon": 3357,
    "aparece</w>": 3358,
    "cuart": 3359,
    "ps</w>": 3360,
    "model": 3361,
    "realiza": 3362,
    "rtantes</w>": 3363,
    "ortantes</w>": 3364,
    "portantes</w>": 3365,
    "derecho": 3366,
    "derechos</w>": 3367,
    "aterra</w>": 3368,
    "casti": 3369,
    "stración</w>": 3370,
    "ículos</w>": 3371,
    "mportantes</w>": 3372,
    "importantes</w>": 3373,
    "occidenta": 3374,
    "provincia": 3375,
    "btuvo</w>": 3376,
    "obtuvo</w>": 3377,
    "icialmente</w>": 3378,
    "antigua</w>": 3379,
    "iri": 3380,
    "comba": 3381,
    "laterra</w>": 3382,
    "ecord": 3383,
    "oficin": 3384,
    "ulares</w>": 3385,
    "mara</w>": 3386,
    "len</w>": 3387,
    "record": 3388,
    "amos</w>": 3389,
    "my</w>": 3390,
    "van</w>": 3391,
    "illas</w>": 3392,
    "micos</w>": 3393,
    "glaterra</w>": 3394,
    "nglaterra</w>": 3395,
    "espera": 3396,
    "inglaterra</w>": 3397,
    "califo": 3398,
    "califor": 3399,
    "californ": 3400,
    "californi": 3401,
    "ágina</w>": 3402,
    "sodio</w>": 3403,
    "pose": 3404,
    "crea": 3405,
    "gencia</w>": 3406,
    "eón</w>": 3407,
    "endiente</w>": 3408,
    "página</w>": 3409,
    "hijos</w>": 3410,
    "interior</w>": 3411,
    "inal": 3412,
    "alem": 3413,
    "ace": 3414,
    "pau": 3415,
    "reu": 3416,
    "construid": 3417,
    "ocu": 3418,
    "lvi": 3419,
    "uada</w>": 3420,
    "anterior</w>": 3421,
    "nstitución</w>": 3422,
    "parque</w>": 3423,
    "perma": 3424,
    "menor</w>": 3425,
    "ingenie": 3426,
    "frica</w>": 3427,
    "uevos</w>": 3428,
    "aler": 3429,
    "urid": 3430,
    "ingenier": 3431,
    "raz": 3432,
    "áfica</w>": 3433,
    "estudian": 3434,
    "plantas</w>": 3435,
    "world</w>": 3436,
    "blica</w>": 3437,
    "ráfica</w>": 3438,
    "gráfica</w>": 3439,
    "guel</w>": 3440,
    "estructura</w>": 3441,
    "usia</w>": 3442,
    "turas</w>": 3443,
    "california</w>": 3444,
    "arquitectu": 3445,
    "arquitectur": 3446,
    "sociación</w>": 3447,
    "een</w>": 3448,
    "wn</w>": 3449,
    "mbrado</w>": 3450,
    "andon": 3451,
    "ralmente</w>": 3452,
    "imas</w>": 3453,
    "confi": 3454,
    "iguel</w>": 3455,
    "ecuencia</w>": 3456,
    "miguel</w>": 3457,
    "desi": 3458,
    "fecha</w>": 3459,
    "rmino</w>": 3460,
    "olista</w>": 3461,
    "iamente</w>": 3462,
    "ltados</w>": 3463,
    "ahora</w>": 3464,
    "ft</w>": 3465,
    "cadas</w>": 3466,
    "ferna": 3467,
    "raciones</w>": 3468,
    "érmino</w>": 3469,
    "término</w>": 3470,
    "tando</w>": 3471,
    "cere": 3472,
    "líticos</w>": 3473,
    "combat": 3474,
    "alemá": 3475,
    "icana</w>": 3476,
    "diendo</w>": 3477,
    "rusia</w>": 3478,
    "mil": 3479,
    "tab": 3480,
    "laci": 3481,
    "alemán</w>": 3482,
    "idi": 3483,
    "asociación</w>": 3484,
    "cret": 3485,
    "archi": 3486,
    "entrenado": 3487,
    "blicado</w>": 3488,
    "ublicado</w>": 3489,
    "publicado</w>": 3490,
    "liberta": 3491,
    "francesa</w>": 3492,
    "dalla</w>": 3493,
    "alizado</w>": 3494,
    "eyes</w>": 3495,
    "permiti": 3496,
    "mag": 3497,
    "característica": 3498,
    "características</w>": 3499,
    "licó</w>": 3500,
    "od</w>": 3501,
    "período</w>": 3502,
    "ciudades</w>": 3503,
    "arquitectura</w>": 3504,
    "urida": 3505,
    "diseño</w>": 3506,
    "dar</w>": 3507,
    "luch": 3508,
    "ador": 3509,
    "coloni": 3510,
    "ronter": 3511,
    "fronter": 3512,
    "energ": 3513,
    "ry": 3514,
    "jes</w>": 3515,
    "mpos</w>": 3516,
    "ultados</w>": 3517,
    "nd</w>": 3518,
    "gobernado": 3519,
    "reas</w>": 3520,
    "umentos</w>": 3521,
    "estar</w>": 3522,
    "posibl": 3523,
    "posible</w>": 3524,
    "aún</w>": 3525,
    "ender</w>": 3526,
    "coc": 3527,
    "edalla</w>": 3528,
    "medalla</w>": 3529,
    "iii</w>": 3530,
    "icano</w>": 3531,
    "cone": 3532,
    "ndos</w>": 3533,
    "parte": 3534,
    "elaciones</w>": 3535,
    "cercan": 3536,
    "uvieron</w>": 3537,
    "resultad": 3538,
    "tuvieron</w>": 3539,
    "resultado</w>": 3540,
    "lanzad": 3541,
    "olíticos</w>": 3542,
    "osterio": 3543,
    "posterio": 3544,
    "fini": 3545,
    "hermano</w>": 3546,
    "modelo</w>": 3547,
    "serie": 3548,
    "toria": 3549,
    "nel</w>": 3550,
    "unción</w>": 3551,
    "fó": 3552,
    "mercad": 3553,
    "ombrado</w>": 3554,
    "barri": 3555,
    "fernan": 3556,
    "lag": 3557,
    "personaje</w>": 3558,
    "ls</w>": 3559,
    "bandon": 3560,
    "willia": 3561,
    "libre</w>": 3562,
    "varia": 3563,
    "gol": 3564,
    "cicl": 3565,
    "ko</w>": 3566,
    "tenta": 3567,
    "corpo": 3568,
    "aración</w>": 3569,
    "ys</w>": 3570,
    "ntiene</w>": 3571,
    "nombrado</w>": 3572,
    "venezu": 3573,
    "venezue": 3574,
    "venezuel": 3575,
    "siciones</w>": 3576,
    "uridad</w>": 3577,
    "necesi": 3578,
    "corpor": 3579,
    "xi</w>": 3580,
    "coma": 3581,
    "eron</w>": 3582,
    "roj": 3583,
    "espacio</w>": 3584,
    "íp": 3585,
    "isodio</w>": 3586,
    "especial</w>": 3587,
    "gido</w>": 3588,
    "pisodio</w>": 3589,
    "episodio</w>": 3590,
    "nente</w>": 3591,
    "cciona": 3592,
    "mc": 3593,
    "anu": 3594,
    "suel": 3595,
    "ndación</w>": 3596,
    "undación</w>": 3597,
    "políticos</w>": 3598,
    "iá": 3599,
    "ira": 3600,
    "tema</w>": 3601,
    "ulación</w>": 3602,
    "series</w>": 3603,
    "venezuela</w>": 3604,
    "academi": 3605,
    "imperio</w>": 3606,
    "torial</w>": 3607,
    "gual</w>": 3608,
    "artes</w>": 3609,
    "epción</w>": 3610,
    "cepción</w>": 3611,
    "acto</w>": 3612,
    "fernand": 3613,
    "atural</w>": 3614,
    "natural</w>": 3615,
    "product": 3616,
    "ole": 3617,
    "smos</w>": 3618,
    "estudiant": 3619,
    "gica</w>": 3620,
    "ancia": 3621,
    "veni": 3622,
    "preci": 3623,
    "cal": 3624,
    "indic": 3625,
    "lina</w>": 3626,
    "ricos</w>": 3627,
    "orias</w>": 3628,
    "slas</w>": 3629,
    "islas</w>": 3630,
    "ubes</w>": 3631,
    "comis": 3632,
    "madamente</w>": 3633,
    "densi": 3634,
    "paso</w>": 3635,
    "abandon": 3636,
    "cou": 3637,
    "ctor": 3638,
    "único</w>": 3639,
    "joven</w>": 3640,
    "xist": 3641,
    "igual</w>": 3642,
    "evas</w>": 3643,
    "exist": 3644,
    "vado</w>": 3645,
    "ew": 3646,
    "podrí": 3647,
    "aestr": 3648,
    "caro": 3649,
    "maestr": 3650,
    "denti": 3651,
    "icados</w>": 3652,
    "fich": 3653,
    "ibros</w>": 3654,
    "libros</w>": 3655,
    "municipal</w>": 3656,
    "raron</w>": 3657,
    "stante</w>": 3658,
    "clase</w>": 3659,
    "áticos</w>": 3660,
    "comenza": 3661,
    "conte": 3662,
    "ecialmente</w>": 3663,
    "pecialmente</w>": 3664,
    "specialmente</w>": 3665,
    "uru": 3666,
    "especialmente</w>": 3667,
    "león</w>": 3668,
    "vide": 3669,
    "contrat": 3670,
    "critos</w>": 3671,
    "racia": 3672,
    "scritos</w>": 3673,
    "tex": 3674,
    "algo</w>": 3675,
    "marca": 3676,
    "cantid": 3677,
    "cantida": 3678,
    "cast": 3679,
    "circ": 3680,
    "oducid": 3681,
    "roducid": 3682,
    "sesin": 3683,
    "asesin": 3684,
    "dientes</w>": 3685,
    "fensa</w>": 3686,
    "reación</w>": 3687,
    "rtivo</w>": 3688,
    "jefe</w>": 3689,
    "luyendo</w>": 3690,
    "ltural</w>": 3691,
    "ultural</w>": 3692,
    "cultural</w>": 3693,
    "xo</w>": 3694,
    "creación</w>": 3695,
    "zamiento</w>": 3696,
    "ot</w>": 3697,
    "inado</w>": 3698,
    "rd</w>": 3699,
    "perf": 3700,
    "ortivo</w>": 3701,
    "ham": 3702,
    "decidi": 3703,
    "portivo</w>": 3704,
    "academia</w>": 3705,
    "inclui": 3706,
    "ble": 3707,
    "efensa</w>": 3708,
    "defensa</w>": 3709,
    "modo</w>": 3710,
    "tilla</w>": 3711,
    "ética</w>": 3712,
    "sultados</w>": 3713,
    "xim": 3714,
    "agen</w>": 3715,
    "ex</w>": 3716,
    "ess": 3717,
    "hé": 3718,
    "ético</w>": 3719,
    "dá": 3720,
    "densid": 3721,
    "densida": 3722,
    "osas</w>": 3723,
    "comisi": 3724,
    "osiciones</w>": 3725,
    "posiciones</w>": 3726,
    "cluyendo</w>": 3727,
    "capacidad</w>": 3728,
    "esultados</w>": 3729,
    "resultados</w>": 3730,
    "muestra</w>": 3731,
    "mencion": 3732,
    "unta</w>": 3733,
    "áxim": 3734,
    "máxim": 3735,
    "don</w>": 3736,
    "valle</w>": 3737,
    "ain": 3738,
    "lde</w>": 3739,
    "naciones</w>": 3740,
    "sicos</w>": 3741,
    "encarg": 3742,
    "periodi": 3743,
    "lizada</w>": 3744,
    "salu": 3745,
    "uos</w>": 3746,
    "resta": 3747,
    "consig": 3748,
    "terce": 3749,
    "licaciones</w>": 3750,
    "ocup": 3751,
    "sencillo</w>": 3752,
    "parro": 3753,
    "bel</w>": 3754,
    "carr": 3755,
    "densidad</w>": 3756,
    "lemas</w>": 3757,
    "uevas</w>": 3758,
    "gel</w>": 3759,
    "amientos</w>": 3760,
    "sty": 3761,
    "armad": 3762,
    "establ": 3763,
    "xa": 3764,
    "ren</w>": 3765,
    "ocimiento</w>": 3766,
    "ualidad</w>": 3767,
    "lecidos</w>": 3768,
    "relig": 3769,
    "rcos</w>": 3770,
    "transm": 3771,
    "ovela</w>": 3772,
    "berl": 3773,
    "nocimiento</w>": 3774,
    "onocimiento</w>": 3775,
    "conocimiento</w>": 3776,
    "ben</w>": 3777,
    "endr": 3778,
    "tercer</w>": 3779,
    "novela</w>": 3780,
    "religi": 3781,
    "lad": 3782,
    "inv": 3783,
    "erde</w>": 3784,
    "ncluyendo</w>": 3785,
    "yen</w>": 3786,
    "nim": 3787,
    "garc": 3788,
    "resto</w>": 3789,
    "anch": 3790,
    "monta": 3791,
    "vento</w>": 3792,
    "fundación</w>": 3793,
    "ita</w>": 3794,
    "antante</w>": 3795,
    "cantante</w>": 3796,
    "marg": 3797,
    "apoyo</w>": 3798,
    "tina</w>": 3799,
    "blemas</w>": 3800,
    "formas</w>": 3801,
    "entreg": 3802,
    "ciencias</w>": 3803,
    "meras</w>": 3804,
    "cente</w>": 3805,
    "periodis": 3806,
    "vol": 3807,
    "tares</w>": 3808,
    "styl": 3809,
    "ismos</w>": 3810,
    "castil": 3811,
    "relaciones</w>": 3812,
    "guridad</w>": 3813,
    "charl": 3814,
    "timos</w>": 3815,
    "eguridad</w>": 3816,
    "seguridad</w>": 3817,
    "izados</w>": 3818,
    "ctor</w>": 3819,
    "uciones</w>": 3820,
    "enar": 3821,
    "alb": 3822,
    "parroq": 3823,
    "parroqu": 3824,
    "parroqui": 3825,
    "áfrica</w>": 3826,
    "ementos</w>": 3827,
    "transmi": 3828,
    "ús</w>": 3829,
    "porte</w>": 3830,
    "ográfica</w>": 3831,
    "castill": 3832,
    "admi": 3833,
    "utor</w>": 3834,
    "ront": 3835,
    "itado</w>": 3836,
    "cari": 3837,
    "lero</w>": 3838,
    "isterio</w>": 3839,
    "elas</w>": 3840,
    "há": 3841,
    "entida": 3842,
    "espi": 3843,
    "allas</w>": 3844,
    "comú": 3845,
    "eportivo</w>": 3846,
    "deportivo</w>": 3847,
    "rsos</w>": 3848,
    "david</w>": 3849,
    "sificación</w>": 3850,
    "style</w>": 3851,
    "bicada</w>": 3852,
    "estim": 3853,
    "domin": 3854,
    "rdenad": 3855,
    "ordenad": 3856,
    "lubes</w>": 3857,
    "clubes</w>": 3858,
    "ubicada</w>": 3859,
    "ticia</w>": 3860,
    "iern": 3861,
    "ecret": 3862,
    "uestos</w>": 3863,
    "puestos</w>": 3864,
    "for</w>": 3865,
    "roma</w>": 3866,
    "ugares</w>": 3867,
    "ecto</w>": 3868,
    "lugares</w>": 3869,
    "incluyendo</w>": 3870,
    "core": 3871,
    "nacionale": 3872,
    "nacionales</w>": 3873,
    "enferme": 3874,
    "oliv": 3875,
    "oblemas</w>": 3876,
    "roblemas</w>": 3877,
    "problemas</w>": 3878,
    "fernando</w>": 3879,
    "común</w>": 3880,
    "pera</w>": 3881,
    "ira</w>": 3882,
    "pí": 3883,
    "gadores</w>": 3884,
    "alor</w>": 3885,
    "ames</w>": 3886,
    "pendiente</w>": 3887,
    "nder": 3888,
    "rti": 3889,
    "dij": 3890,
    "ade</w>": 3891,
    "adera</w>": 3892,
    "titu": 3893,
    "ursos</w>": 3894,
    "cursos</w>": 3895,
    "blanco</w>": 3896,
    "unca</w>": 3897,
    "cipación</w>": 3898,
    "honor</w>": 3899,
    "cabe": 3900,
    "aliano</w>": 3901,
    "etermina": 3902,
    "determina": 3903,
    "desemp": 3904,
    "maro": 3905,
    "aer": 3906,
    "coman": 3907,
    "bis": 3908,
    "decir</w>": 3909,
    "bios</w>": 3910,
    "lementos</w>": 3911,
    "lleva": 3912,
    "muri": 3913,
    "nunca</w>": 3914,
    "etario</w>": 3915,
    "regu": 3916,
    "sten</w>": 3917,
    "ss</w>": 3918,
    "castillo</w>": 3919,
    "pter": 3920,
    "campa": 3921,
    "heri": 3922,
    "austr": 3923,
    "vari": 3924,
    "enri": 3925,
    "estra": 3926,
    "cimientos</w>": 3927,
    "economí": 3928,
    "ienda</w>": 3929,
    "oche</w>": 3930,
    "coleg": 3931,
    "nacid": 3932,
    "etap": 3933,
    "ojuegos</w>": 3934,
    "han": 3935,
    "eojuegos</w>": 3936,
    "deojuegos</w>": 3937,
    "ideojuegos</w>": 3938,
    "videojuegos</w>": 3939,
    "licos</w>": 3940,
    "zonas</w>": 3941,
    "artista": 3942,
    "artistas</w>": 3943,
    "nuevos</w>": 3944,
    "federac": 3945,
    "coro": 3946,
    "culo</w>": 3947,
    "uta</w>": 3948,
    "turales</w>": 3949,
    "tuado</w>": 3950,
    "asificación</w>": 3951,
    "federaci": 3952,
    "ff</w>": 3953,
    "zquier": 3954,
    "star": 3955,
    "zquierd": 3956,
    "egido</w>": 3957,
    "izquierd": 3958,
    "endió</w>": 3959,
    "usa</w>": 3960,
    "ejer": 3961,
    "mm": 3962,
    "tuada</w>": 3963,
    "andid": 3964,
    "olo": 3965,
    "cen": 3966,
    "desig": 3967,
    "estadi": 3968,
    "autor</w>": 3969,
    "ks": 3970,
    "enov": 3971,
    "rit": 3972,
    "mática</w>": 3973,
    "lucha</w>": 3974,
    "ongreso</w>": 3975,
    "lasificación</w>": 3976,
    "clasificación</w>": 3977,
    "general": 3978,
    "anunció</w>": 3979,
    "congreso</w>": 3980,
    "noche</w>": 3981,
    "tenía": 3982,
    "baja</w>": 3983,
    "etapa</w>": 3984,
    "activid": 3985,
    "activida": 3986,
    "actividad</w>": 3987,
    "landa</w>": 3988,
    "ugadores</w>": 3989,
    "jugadores</w>": 3990,
    "comand": 3991,
    "notas</w>": 3992,
    "ek": 3993,
    "escul": 3994,
    "llegar</w>": 3995,
    "garcí": 3996,
    "utiliza": 3997,
    "radiciona": 3998,
    "tradiciona": 3999,
    "té</w>": 4000,
    "abiert": 4001,
    "incluye</w>": 4002,
    "destin": 4003,
    "garcía</w>": 4004,
    "magen</w>": 4005,
    "vidades</w>": 4006,
    "lor": 4007,
    "istración</w>": 4008,
    "perman": 4009,
    "nistración</w>": 4010,
    "inistración</w>": 4011,
    "ministración</w>": 4012,
    "icales</w>": 4013,
    "entrad": 4014,
    "dministración</w>": 4015,
    "administración</w>": 4016,
    "planta</w>": 4017,
    "nera": 4018,
    "portug": 4019,
    "imagen</w>": 4020,
    "interé": 4021,
    "pez</w>": 4022,
    "gracia": 4023,
    "trabaja": 4024,
    "bern": 4025,
    "mbas</w>": 4026,
    "icipación</w>": 4027,
    "ticipación</w>": 4028,
    "sof": 4029,
    "casos</w>": 4030,
    "interés</w>": 4031,
    "compos": 4032,
    "permane": 4033,
    "ír": 4034,
    "nidades</w>": 4035,
    "cientes</w>": 4036,
    "ence": 4037,
    "dy</w>": 4038,
    "manc": 4039,
    "identi": 4040,
    "emos</w>": 4041,
    "colu": 4042,
    "bó": 4043,
    "tenían</w>": 4044,
    "luz</w>": 4045,
    "ituación</w>": 4046,
    "azas</w>": 4047,
    "áreas</w>": 4048,
    "iación</w>": 4049,
    "situación</w>": 4050,
    "tente</w>": 4051,
    "imeras</w>": 4052,
    "economía</w>": 4053,
    "alles</w>": 4054,
    "dijo</w>": 4055,
    "olic": 4056,
    "ama</w>": 4057,
    "aé": 4058,
    "urug": 4059,
    "tulos</w>": 4060,
    "hon": 4061,
    "ader": 4062,
    "rimeras</w>": 4063,
    "primeras</w>": 4064,
    "llecidos</w>": 4065,
    "mados</w>": 4066,
    "alab": 4067,
    "allecidos</w>": 4068,
    "fallecidos</w>": 4069,
    "inali": 4070,
    "bolista</w>": 4071,
    "occidental</w>": 4072,
    "respons": 4073,
    "isi": 4074,
    "bron": 4075,
    "jó": 4076,
    "sando</w>": 4077,
    "estadio</w>": 4078,
    "imadamente</w>": 4079,
    "ficios</w>": 4080,
    "itares</w>": 4081,
    "ximadamente</w>": 4082,
    "oximadamente</w>": 4083,
    "roximadamente</w>": 4084,
    "proximadamente</w>": 4085,
    "llevó</w>": 4086,
    "aproximadamente</w>": 4087,
    "litares</w>": 4088,
    "ilitares</w>": 4089,
    "militares</w>": 4090,
    "dada</w>": 4091,
    "partes</w>": 4092,
    "uidos</w>": 4093,
    "elementos</w>": 4094,
    "yn": 4095,
    "etivo</w>": 4096,
    "permanec": 4097,
    "jetivo</w>": 4098,
    "bjetivo</w>": 4099,
    "ncos</w>": 4100,
    "ép": 4101,
    "encial</w>": 4102,
    "paz</w>": 4103,
    "ituada</w>": 4104,
    "rticipación</w>": 4105,
    "articipación</w>": 4106,
    "participación</w>": 4107,
    "ata": 4108,
    "situada</w>": 4109,
    "urugu": 4110,
    "energí": 4111,
    "profesor</w>": 4112,
    "mina": 4113,
    "urugua": 4114,
    "gobernador</w>": 4115,
    "ítulos</w>": 4116,
    "campañ": 4117,
    "acciones</w>": 4118,
    "estis": 4119,
    "asas</w>": 4120,
    "polic": 4121,
    "campaña</w>": 4122,
    "sados</w>": 4123,
    "pru": 4124,
    "blicó</w>": 4125,
    "art</w>": 4126,
    "ublicó</w>": 4127,
    "publicó</w>": 4128,
    "univers": 4129,
    "onados</w>": 4130,
    "salud</w>": 4131,
    "escritore": 4132,
    "escritores</w>": 4133,
    "literat": 4134,
    "única</w>": 4135,
    "ablemente</w>": 4136,
    "esencia</w>": 4137,
    "gracias</w>": 4138,
    "gando</w>": 4139,
    "fase</w>": 4140,
    "isiones</w>": 4141,
    "ividades</w>": 4142,
    "gonz": 4143,
    "tividades</w>": 4144,
    "respect": 4145,
    "ntas</w>": 4146,
    "estist": 4147,
    "cestist": 4148,
    "vuelt": 4149,
    "gramas</w>": 4150,
    "ncestist": 4151,
    "oncestist": 4152,
    "loncestist": 4153,
    "aloncestist": 4154,
    "baloncestist": 4155,
    "ctividades</w>": 4156,
    "actividades</w>": 4157,
    "composi": 4158,
    "ok</w>": 4159,
    "ganado": 4160,
    "esent": 4161,
    "jeros</w>": 4162,
    "ltos</w>": 4163,
    "composit": 4164,
    "murió</w>": 4165,
    "pp</w>": 4166,
    "objetivo</w>": 4167,
    "coron": 4168,
    "bro": 4169,
    "ública</w>": 4170,
    "pública</w>": 4171,
    "bol": 4172,
    "responsa": 4173,
    "ctriz</w>": 4174,
    "sé": 4175,
    "eferencia</w>": 4176,
    "nciert": 4177,
    "ativos</w>": 4178,
    "colum": 4179,
    "ibli": 4180,
    "uyen</w>": 4181,
    "rando</w>": 4182,
    "uk": 4183,
    "unidades</w>": 4184,
    "adora</w>": 4185,
    "veran": 4186,
    "umanos</w>": 4187,
    "actriz</w>": 4188,
    "igos</w>": 4189,
    "ampli": 4190,
    "mara": 4191,
    "referencia</w>": 4192,
    "bibli": 4193,
    "simil": 4194,
    "mm</w>": 4195,
    "ámara</w>": 4196,
    "úa</w>": 4197,
    "organiza": 4198,
    "propia</w>": 4199,
    "isten</w>": 4200,
    "candid": 4201,
    "iller": 4202,
    "principi": 4203,
    "resent": 4204,
    "tbolista</w>": 4205,
    "sistencia</w>": 4206,
    "alaci": 4207,
    "mas": 4208,
    "xterio": 4209,
    "exterio": 4210,
    "escult": 4211,
    "tama": 4212,
    "utbolista</w>": 4213,
    "futbolista</w>": 4214,
    "uen</w>": 4215,
    "esposa</w>": 4216,
    "iños</w>": 4217,
    "present": 4218,
    "derrota": 4219,
    "conde</w>": 4220,
    "htt": 4221,
    "ell</w>": 4222,
    "ltimos</w>": 4223,
    "ég": 4224,
    "últimos</w>": 4225,
    "canad": 4226,
    "trata</w>": 4227,
    "ramente</w>": 4228,
    "ctamente</w>": 4229,
    "rgos</w>": 4230,
    "alencia</w>": 4231,
    "march": 4232,
    "uros</w>": 4233,
    "tt</w>": 4234,
    "empresa": 4235,
    "empresas</w>": 4236,
    "vera</w>": 4237,
    "vada</w>": 4238,
    "jetos</w>": 4239,
    "guardi": 4240,
    "finali": 4241,
    "literatu": 4242,
    "podí": 4243,
    "yc": 4244,
    "amino</w>": 4245,
    "lin": 4246,
    "longi": 4247,
    "identif": 4248,
    "oficina</w>": 4249,
    "torias</w>": 4250,
    "barrio</w>": 4251,
    "olici": 4252,
    "palaci": 4253,
    "identifi": 4254,
    "gados</w>": 4255,
    "lmar": 4256,
    "siet": 4257,
    "pues</w>": 4258,
    "cantidad</w>": 4259,
    "siete</w>": 4260,
    "consigu": 4261,
    "persona</w>": 4262,
    "cub": 4263,
    "fuerte</w>": 4264,
    "candida": 4265,
    "iales</w>": 4266,
    "candidat": 4267,
    "misión</w>": 4268,
    "cámara</w>": 4269,
    "ectoria</w>": 4270,
    "eralmente</w>": 4271,
    "yectoria</w>": 4272,
    "ayectoria</w>": 4273,
    "rayectoria</w>": 4274,
    "trayectoria</w>": 4275,
    "ices</w>": 4276,
    "leo</w>": 4277,
    "icción</w>": 4278,
    "literatur": 4279,
    "pequeño</w>": 4280,
    "niños</w>": 4281,
    "cena</w>": 4282,
    "ralia</w>": 4283,
    "jug": 4284,
    "estió": 4285,
    "estión</w>": 4286,
    "nferi": 4287,
    "tv</w>": 4288,
    "mita": 4289,
    "prue": 4290,
    "renta": 4291,
    "logró</w>": 4292,
    "prueb": 4293,
    "identific": 4294,
    "condu": 4295,
    "lian": 4296,
    "altu": 4297,
    "cumenta": 4298,
    "ocumenta": 4299,
    "documenta": 4300,
    "torr": 4301,
    "nuevas</w>": 4302,
    "arcos</w>": 4303,
    "eca</w>": 4304,
    "camino</w>": 4305,
    "aero": 4306,
    "did": 4307,
    "perc": 4308,
    "ejerc": 4309,
    "desa": 4310,
    "ectores</w>": 4311,
    "tralia</w>": 4312,
    "alez": 4313,
    "ependiente</w>": 4314,
    "dependiente</w>": 4315,
    "ww": 4316,
    "respond": 4317,
    "cteri": 4318,
    "etr": 4319,
    "utados</w>": 4320,
    "ogramas</w>": 4321,
    "venid": 4322,
    "stralia</w>": 4323,
    "palacio</w>": 4324,
    "centro": 4325,
    "artíc": 4326,
    "artícu": 4327,
    "artícul": 4328,
    "artículo</w>": 4329,
    "federació": 4330,
    "federación</w>": 4331,
    "capi": 4332,
    "ustralia</w>": 4333,
    "australia</w>": 4334,
    "lengua": 4335,
    "niñ": 4336,
    "wit": 4337,
    "composito": 4338,
    "dig": 4339,
    "dicho</w>": 4340,
    "aleza</w>": 4341,
    "amor</w>": 4342,
    "pone</w>": 4343,
    "mostr": 4344,
    "internacional": 4345,
    "escritos</w>": 4346,
    "mpuesto</w>": 4347,
    "copi": 4348,
    "ruta</w>": 4349,
    "semana</w>": 4350,
    "eada</w>": 4351,
    "ituado</w>": 4352,
    "ban": 4353,
    "principio</w>": 4354,
    "reun": 4355,
    "argentino</w>": 4356,
    "causa</w>": 4357,
    "sar</w>": 4358,
    "eniendo</w>": 4359,
    "situado</w>": 4360,
    "teniendo</w>": 4361,
    "ejos</w>": 4362,
    "energía</w>": 4363,
    "áfico</w>": 4364,
    "uque</w>": 4365,
    "opas</w>": 4366,
    "pag": 4367,
    "ocida": 4368,
    "cat": 4369,
    "producid": 4370,
    "atio": 4371,
    "ráfico</w>": 4372,
    "almar": 4373,
    "ducir</w>": 4374,
    "longit": 4375,
    "longitu": 4376,
    "longitud</w>": 4377,
    "rmado</w>": 4378,
    "dg": 4379,
    "altur": 4380,
    "denominad": 4381,
    "altura</w>": 4382,
    "sali": 4383,
    "especiali": 4384,
    "versio": 4385,
    "terna": 4386,
    "sociale": 4387,
    "sociales</w>": 4388,
    "humanos</w>": 4389,
    "desempe": 4390,
    "desempeñ": 4391,
    "inferi": 4392,
    "circu": 4393,
    "escripción</w>": 4394,
    "ation</w>": 4395,
    "acteri": 4396,
    "periodo</w>": 4397,
    "maron</w>": 4398,
    "wa</w>": 4399,
    "ler</w>": 4400,
    "olvi": 4401,
    "abla</w>": 4402,
    "cedi": 4403,
    "baloncestista": 4404,
    "baloncestistas</w>": 4405,
    "india</w>": 4406,
    "legido</w>": 4407,
    "elegido</w>": 4408,
    "prueba</w>": 4409,
    "cob": 4410,
    "olvió</w>": 4411,
    "sidencia</w>": 4412,
    "cando</w>": 4413,
    "lta": 4414,
    "pendencia</w>": 4415,
    "inta</w>": 4416,
    "az</w>": 4417,
    "ependencia</w>": 4418,
    "dependencia</w>": 4419,
    "dirigida</w>": 4420,
    "ancos</w>": 4421,
    "negro</w>": 4422,
    "matrimonio</w>": 4423,
    "ky</w>": 4424,
    "blos</w>": 4425,
    "consti": 4426,
    "cm</w>": 4427,
    "pasa": 4428,
    "constit": 4429,
    "constitu": 4430,
    "español": 4431,
    "ire</w>": 4432,
    "palmar": 4433,
    "ificios</w>": 4434,
    "tou": 4435,
    "icipios</w>": 4436,
    "decis": 4437,
    "volvió</w>": 4438,
    "scubiert": 4439,
    "escubiert": 4440,
    "descubiert": 4441,
    "jugó</w>": 4442,
    "esis</w>": 4443,
    "roeste</w>": 4444,
    "usti": 4445,
    "presentad": 4446,
    "nicipios</w>": 4447,
    "unicipios</w>": 4448,
    "municipios</w>": 4449,
    "descripción</w>": 4450,
    "dena</w>": 4451,
    "intere": 4452,
    "mercado</w>": 4453,
    "inferio": 4454,
    "esq": 4455,
    "partic": 4456,
    "ólica</w>": 4457,
    "ficado</w>": 4458,
    "ables</w>": 4459,
    "esqu": 4460,
    "ificado</w>": 4461,
    "rond": 4462,
    "ropas</w>": 4463,
    "ocales</w>": 4464,
    "presentó</w>": 4465,
    "prov": 4466,
    "marti": 4467,
    "tadas</w>": 4468,
    "comuna</w>": 4469,
    "colegi": 4470,
    "responsab": 4471,
    "lera</w>": 4472,
    "etc</w>": 4473,
    "onciert": 4474,
    "conciert": 4475,
    "arci": 4476,
    "palmaré": 4477,
    "palmarés</w>": 4478,
    "histórico</w>": 4479,
    "particu": 4480,
    "particul": 4481,
    "interes": 4482,
    "esidencia</w>": 4483,
    "residencia</w>": 4484,
    "capit": 4485,
    "armas</w>": 4486,
    "ecto": 4487,
    "yuda</w>": 4488,
    "policí": 4489,
    "decisi": 4490,
    "dando</w>": 4491,
    "ayuda</w>": 4492,
    "literatura</w>": 4493,
    "zz": 4494,
    "ónica</w>": 4495,
    "horas</w>": 4496,
    "aque</w>": 4497,
    "enfermed": 4498,
    "enfermeda": 4499,
    "animal": 4500,
    "ung</w>": 4501,
    "onalmente</w>": 4502,
    "diverso": 4503,
    "onis": 4504,
    "diversos</w>": 4505,
    "representan": 4506,
    "endas</w>": 4507,
    "asesina": 4508,
    "locida": 4509,
    "elocida": 4510,
    "velocida": 4511,
    "iario</w>": 4512,
    "feli": 4513,
    "menta</w>": 4514,
    "dem": 4515,
    "unida": 4516,
    "unidad</w>": 4517,
    "eto</w>": 4518,
    "nario</w>": 4519,
    "text": 4520,
    "lecid": 4521,
    "hn": 4522,
    "disp": 4523,
    "ector</w>": 4524,
    "internacionale": 4525,
    "internacionales</w>": 4526,
    "var": 4527,
    "resencia</w>": 4528,
    "presencia</w>": 4529,
    "aster": 4530,
    "simila": 4531,
    "taliano</w>": 4532,
    "italiano</w>": 4533,
    "ativa</w>": 4534,
    "cert": 4535,
    "fé": 4536,
    "gü": 4537,
    "ajes</w>": 4538,
    "rogramas</w>": 4539,
    "bado</w>": 4540,
    "ifica</w>": 4541,
    "ft": 4542,
    "conoce": 4543,
    "programas</w>": 4544,
    "jorge</w>": 4545,
    "enriq": 4546,
    "enriqu": 4547,
    "serva</w>": 4548,
    "identes</w>": 4549,
    "ound</w>": 4550,
    "riente</w>": 4551,
    "robert</w>": 4552,
    "bronc": 4553,
    "similar</w>": 4554,
    "función</w>": 4555,
    "envia": 4556,
    "asiones</w>": 4557,
    "nq": 4558,
    "nisterio</w>": 4559,
    "inisterio</w>": 4560,
    "ministerio</w>": 4561,
    "shes</w>": 4562,
    "comisió": 4563,
    "dico</w>": 4564,
    "comisión</w>": 4565,
    "ws</w>": 4566,
    "pap": 4567,
    "goles</w>": 4568,
    "esto": 4569,
    "regis": 4570,
    "grie": 4571,
    "empe": 4572,
    "vestig": 4573,
    "regist": 4574,
    "estable": 4575,
    "policía</w>": 4576,
    "enten": 4577,
    "olección</w>": 4578,
    "colección</w>": 4579,
    "au</w>": 4580,
    "menu": 4581,
    "periodist": 4582,
    "universita": 4583,
    "estata": 4584,
    "ladas</w>": 4585,
    "tu</w>": 4586,
    "cabez": 4587,
    "corte</w>": 4588,
    "fuentes</w>": 4589,
    "fuente</w>": 4590,
    "decidió</w>": 4591,
    "uici": 4592,
    "ricas</w>": 4593,
    "eda</w>": 4594,
    "luencia</w>": 4595,
    "fluencia</w>": 4596,
    "tropas</w>": 4597,
    "bronce</w>": 4598,
    "iferencia</w>": 4599,
    "diferencia</w>": 4600,
    "tamañ": 4601,
    "añas</w>": 4602,
    "tamaño</w>": 4603,
    "lori": 4604,
    "xisten</w>": 4605,
    "existen</w>": 4606,
    "antos</w>": 4607,
    "deriv": 4608,
    "garon</w>": 4609,
    "ezas</w>": 4610,
    "óx": 4611,
    "ueños</w>": 4612,
    "cuyo</w>": 4613,
    "reuni": 4614,
    "verano</w>": 4615,
    "medid": 4616,
    "rena</w>": 4617,
    "lias</w>": 4618,
    "rob": 4619,
    "rías</w>": 4620,
    "bú": 4621,
    "bene": 4622,
    "color": 4623,
    "federal</w>": 4624,
    "transporte</w>": 4625,
    "tualidad</w>": 4626,
    "stemas</w>": 4627,
    "bjetos</w>": 4628,
    "ord": 4629,
    "zos</w>": 4630,
    "objetos</w>": 4631,
    "che": 4632,
    "istemas</w>": 4633,
    "sistemas</w>": 4634,
    "atado</w>": 4635,
    "descu": 4636,
    "enso": 4637,
    "uá": 4638,
    "utado</w>": 4639,
    "zaciones</w>": 4640,
    "izaciones</w>": 4641,
    "nvestig": 4642,
    "investig": 4643,
    "vuelta</w>": 4644,
    "ishes</w>": 4645,
    "ativo</w>": 4646,
    "menud": 4647,
    "pensa": 4648,
    "uas</w>": 4649,
    "ríos</w>": 4650,
    "fil": 4651,
    "tería</w>": 4652,
    "torre</w>": 4653,
    "fishes</w>": 4654,
    "varie": 4655,
    "str": 4656,
    "dispu": 4657,
    "santo</w>": 4658,
    "ball</w>": 4659,
    "jando</w>": 4660,
    "apareció</w>": 4661,
    "itación</w>": 4662,
    "pico</w>": 4663,
    "asia</w>": 4664,
    "carl": 4665,
    "sw": 4666,
    "incluid": 4667,
    "ctualidad</w>": 4668,
    "actualidad</w>": 4669,
    "rang": 4670,
    "ds</w>": 4671,
    "ficha</w>": 4672,
    "aire</w>": 4673,
    "animale": 4674,
    "animales</w>": 4675,
    "alcanza": 4676,
    "menudo</w>": 4677,
    "martín</w>": 4678,
    "ntamiento</w>": 4679,
    "kl": 4680,
    "pab": 4681,
    "adur": 4682,
    "escritor</w>": 4683,
    "enses</w>": 4684,
    "iere</w>": 4685,
    "cidente</w>": 4686,
    "bil": 4687,
    "scar</w>": 4688,
    "stor": 4689,
    "itorial</w>": 4690,
    "yos</w>": 4691,
    "sub</w>": 4692,
    "ditorial</w>": 4693,
    "editorial</w>": 4694,
    "nav": 4695,
    "lleva</w>": 4696,
    "pequeña</w>": 4697,
    "rece</w>": 4698,
    "abajos</w>": 4699,
    "ean</w>": 4700,
    "ibles</w>": 4701,
    "valencia</w>": 4702,
    "rabajos</w>": 4703,
    "tarra</w>": 4704,
    "izando</w>": 4705,
    "amig": 4706,
    "ucciones</w>": 4707,
    "ficos</w>": 4708,
    "prot": 4709,
    "podría</w>": 4710,
    "alla": 4711,
    "sr": 4712,
    "diados</w>": 4713,
    "senad": 4714,
    "consta": 4715,
    "grieg": 4716,
    "paración</w>": 4717,
    "ov</w>": 4718,
    "erente</w>": 4719,
    "terminó</w>": 4720,
    "áticas</w>": 4721,
    "registr": 4722,
    "universitar": 4723,
    "enseñ": 4724,
    "oriental</w>": 4725,
    "design": 4726,
    "sente</w>": 4727,
    "rgen</w>": 4728,
    "universitari": 4729,
    "permite</w>": 4730,
    "sol</w>": 4731,
    "efini": 4732,
    "dificios</w>": 4733,
    "edificios</w>": 4734,
    "defini": 4735,
    "tram": 4736,
    "tólica</w>": 4737,
    "atólica</w>": 4738,
    "católica</w>": 4739,
    "oficial": 4740,
    "parej": 4741,
    "cine": 4742,
    "estadí": 4743,
    "realizar</w>": 4744,
    "poe": 4745,
    "version": 4746,
    "óc": 4747,
    "cabeza</w>": 4748,
    "mitad</w>": 4749,
    "ecreto</w>": 4750,
    "medida</w>": 4751,
    "uienes</w>": 4752,
    "quienes</w>": 4753,
    "operació": 4754,
    "nfluencia</w>": 4755,
    "operación</w>": 4756,
    "william</w>": 4757,
    "enal</w>": 4758,
    "ocho</w>": 4759,
    "nzamiento</w>": 4760,
    "oradas</w>": 4761,
    "fond": 4762,
    "anzamiento</w>": 4763,
    "valor</w>": 4764,
    "jores</w>": 4765,
    "empez": 4766,
    "ph</w>": 4767,
    "riv": 4768,
    "queda</w>": 4769,
    "ejores</w>": 4770,
    "mejores</w>": 4771,
    "orales</w>": 4772,
    "ticamente</w>": 4773,
    "mil</w>": 4774,
    "itarra</w>": 4775,
    "frontera</w>": 4776,
    "lanzamiento</w>": 4777,
    "jard": 4778,
    "ementa": 4779,
    "ngel</w>": 4780,
    "comit": 4781,
    "lis": 4782,
    "uctos</w>": 4783,
    "ferroc": 4784,
    "vista</w>": 4785,
    "lit": 4786,
    "coo": 4787,
    "uitarra</w>": 4788,
    "guitarra</w>": 4789,
    "resos</w>": 4790,
    "oamerican": 4791,
    "ferroca": 4792,
    "ferrocar": 4793,
    "ferrocarr": 4794,
    "ferrocarri": 4795,
    "cceso</w>": 4796,
    "acceso</w>": 4797,
    "ford</w>": 4798,
    "pabl": 4799,
    "las": 4800,
    "ductos</w>": 4801,
    "descub": 4802,
    "nicación</w>": 4803,
    "descubr": 4804,
    "etal</w>": 4805,
    "minación</w>": 4806,
    "reste</w>": 4807,
    "mic": 4808,
    "pablo</w>": 4809,
    "conoce</w>": 4810,
    "orado</w>": 4811,
    "ínci": 4812,
    "trabajó</w>": 4813,
    "dv": 4814,
    "rg</w>": 4815,
    "iv</w>": 4816,
    "íncip": 4817,
    "unicación</w>": 4818,
    "municación</w>": 4819,
    "omunicación</w>": 4820,
    "comunicación</w>": 4821,
    "taque</w>": 4822,
    "artista</w>": 4823,
    "uñ": 4824,
    "utur": 4825,
    "ríncip": 4826,
    "príncip": 4827,
    "uario</w>": 4828,
    "combate</w>": 4829,
    "err": 4830,
    "integ": 4831,
    "encontrab": 4832,
    "diez</w>": 4833,
    "neas</w>": 4834,
    "edra</w>": 4835,
    "ionados</w>": 4836,
    "marq": 4837,
    "aná": 4838,
    "rici": 4839,
    "vá": 4840,
    "banc": 4841,
    "eoría</w>": 4842,
    "verde</w>": 4843,
    "rición</w>": 4844,
    "teoría</w>": 4845,
    "sentid": 4846,
    "reti": 4847,
    "gg": 4848,
    "canadá</w>": 4849,
    "integr": 4850,
    "marqu": 4851,
    "trabajos</w>": 4852,
    "artís": 4853,
    "ataque</w>": 4854,
    "artíst": 4855,
    "artísti": 4856,
    "leno</w>": 4857,
    "cupera": 4858,
    "esí": 4859,
    "ecupera": 4860,
    "recupera": 4861,
    "lanzado</w>": 4862,
    "ontiene</w>": 4863,
    "contiene</w>": 4864,
    "egado</w>": 4865,
    "artístic": 4866,
    "ben": 4867,
    "eferi": 4868,
    "ingt": 4869,
    "emperat": 4870,
    "scog": 4871,
    "colle": 4872,
    "posee</w>": 4873,
    "ndependiente</w>": 4874,
    "independiente</w>": 4875,
    "stilla</w>": 4876,
    "per</w>": 4877,
    "ulta": 4878,
    "varied": 4879,
    "varieda": 4880,
    "británico</w>": 4881,
    "putados</w>": 4882,
    "asada</w>": 4883,
    "scenso</w>": 4884,
    "istancia</w>": 4885,
    "ediciones</w>": 4886,
    "distancia</w>": 4887,
    "biblio": 4888,
    "ung": 4889,
    "sex": 4890,
    "ediados</w>": 4891,
    "existe</w>": 4892,
    "colab": 4893,
    "conq": 4894,
    "endido</w>": 4895,
    "flo": 4896,
    "sch": 4897,
    "colabo": 4898,
    "colabor": 4899,
    "oa</w>": 4900,
    "futur": 4901,
    "conqu": 4902,
    "colegio</w>": 4903,
    "lica": 4904,
    "iscog": 4905,
    "culta": 4906,
    "discog": 4907,
    "miti": 4908,
    "solución</w>": 4909,
    "ingto": 4910,
    "tana</w>": 4911,
    "mediados</w>": 4912,
    "ania</w>": 4913,
    "propie": 4914,
    "propied": 4915,
    "propieda": 4916,
    "propiedad</w>": 4917,
    "ómetros</w>": 4918,
    "anex": 4919,
    "pudo</w>": 4920,
    "tec": 4921,
    "cultad</w>": 4922,
    "comanda": 4923,
    "elaciona": 4924,
    "relaciona": 4925,
    "luyen</w>": 4926,
    "hí": 4927,
    "lec": 4928,
    "establec": 4929,
    "ompuesto</w>": 4930,
    "compuesto</w>": 4931,
    "ionalmente</w>": 4932,
    "bibliot": 4933,
    "estructura": 4934,
    "eí": 4935,
    "material</w>": 4936,
    "sierr": 4937,
    "urado</w>": 4938,
    "ulado</w>": 4939,
    "scos</w>": 4940,
    "apas</w>": 4941,
    "ndependencia</w>": 4942,
    "independencia</w>": 4943,
    "texto</w>": 4944,
    "ningu": 4945,
    "plan</w>": 4946,
    "eneralmente</w>": 4947,
    "uena</w>": 4948,
    "generalmente</w>": 4949,
    "referi": 4950,
    "ward</w>": 4951,
    "diversa": 4952,
    "ington</w>": 4953,
    "diversas</w>": 4954,
    "ojas</w>": 4955,
    "tipos</w>": 4956,
    "conqui": 4957,
    "guas</w>": 4958,
    "dicha</w>": 4959,
    "ningun": 4960,
    "tículos</w>": 4961,
    "records</w>": 4962,
    "eneciente</w>": 4963,
    "teneciente</w>": 4964,
    "rteneciente</w>": 4965,
    "erteneciente</w>": 4966,
    "perteneciente</w>": 4967,
    "endo": 4968,
    "quedó</w>": 4969,
    "confo": 4970,
    "consis": 4971,
    "jesú": 4972,
    "consist": 4973,
    "identifica": 4974,
    "jesús</w>": 4975,
    "aqu": 4976,
    "casiones</w>": 4977,
    "ocasiones</w>": 4978,
    "confor": 4979,
    "mala</w>": 4980,
    "adres</w>": 4981,
    "vía</w>": 4982,
    "comercial</w>": 4983,
    "estadís": 4984,
    "inero</w>": 4985,
    "conquis": 4986,
    "conquist": 4987,
    "estadíst": 4988,
    "estadísti": 4989,
    "estadístic": 4990,
    "acimiento</w>": 4991,
    "pto</w>": 4992,
    "lat": 4993,
    "licas</w>": 4994,
    "compi": 4995,
    "deba": 4996,
    "eblos</w>": 4997,
    "ueblos</w>": 4998,
    "pueblos</w>": 4999,
    "canta": 5000,
    "investiga": 5001,
    "lengua</w>": 5002,
    "tición</w>": 5003,
    "bita": 5004,
    "astilla</w>": 5005,
    "ions</w>": 5006,
    "íder</w>": 5007,
    "líder</w>": 5008,
    "entrada</w>": 5009,
    "ix": 5010,
    "lonia</w>": 5011,
    "sil": 5012,
    "eina</w>": 5013,
    "yas</w>": 5014,
    "aran": 5015,
    "itas</w>": 5016,
    "minos</w>": 5017,
    "acompañ": 5018,
    "jac": 5019,
    "my": 5020,
    "enrique</w>": 5021,
    "ose": 5022,
    "trem": 5023,
    "perió": 5024,
    "james</w>": 5025,
    "don": 5026,
    "ama": 5027,
    "mático</w>": 5028,
    "city</w>": 5029,
    "rela": 5030,
    "ncorpor": 5031,
    "respecto</w>": 5032,
    "mber": 5033,
    "ativas</w>": 5034,
    "incorpor": 5035,
    "ovi": 5036,
    "carn": 5037,
    "títulos</w>": 5038,
    "ronda</w>": 5039,
    "reina</w>": 5040,
    "conduc": 5041,
    "blac": 5042,
    "paul</w>": 5043,
    "oros</w>": 5044,
    "bación</w>": 5045,
    "gira</w>": 5046,
    "flores</w>": 5047,
    "ventur": 5048,
    "sain": 5049,
    "emori": 5050,
    "bili": 5051,
    "lómetros</w>": 5052,
    "salv": 5053,
    "ilómetros</w>": 5054,
    "kilómetros</w>": 5055,
    "len": 5056,
    "generac": 5057,
    "generaci": 5058,
    "sala</w>": 5059,
    "nciona": 5060,
    "libertad</w>": 5061,
    "isl": 5062,
    "ale</w>": 5063,
    "otor</w>": 5064,
    "tinos</w>": 5065,
    "video</w>": 5066,
    "vistas</w>": 5067,
    "albert": 5068,
    "rei": 5069,
    "sector</w>": 5070,
    "memori": 5071,
    "alizada</w>": 5072,
    "liana</w>": 5073,
    "desarrollad": 5074,
    "fondo</w>": 5075,
    "periód": 5076,
    "periódi": 5077,
    "periódic": 5078,
    "esas</w>": 5079,
    "timas</w>": 5080,
    "revolución</w>": 5081,
    "alian": 5082,
    "nutos</w>": 5083,
    "capitá": 5084,
    "personal": 5085,
    "rítica</w>": 5086,
    "inutos</w>": 5087,
    "minutos</w>": 5088,
    "velocidad</w>": 5089,
    "capitán</w>": 5090,
    "pista</w>": 5091,
    "crítica</w>": 5092,
    "entrev": 5093,
    "ópez</w>": 5094,
    "lópez</w>": 5095,
    "bb": 5096,
    "imen</w>": 5097,
    "sir": 5098,
    "staciones</w>": 5099,
    "firmó</w>": 5100,
    "ectamente</w>": 5101,
    "estatu": 5102,
    "tierra": 5103,
    "mble": 5104,
    "dejó</w>": 5105,
    "esente</w>": 5106,
    "resente</w>": 5107,
    "presente</w>": 5108,
    "industria</w>": 5109,
    "bibliote": 5110,
    "motor</w>": 5111,
    "vención</w>": 5112,
    "discogr": 5113,
    "stico</w>": 5114,
    "lterna": 5115,
    "alterna": 5116,
    "gentes</w>": 5117,
    "participan": 5118,
    "oductos</w>": 5119,
    "castilla</w>": 5120,
    "mars": 5121,
    "ip</w>": 5122,
    "bibliotec": 5123,
    "tierras</w>": 5124,
    "lizados</w>": 5125,
    "orti": 5126,
    "press</w>": 5127,
    "alas</w>": 5128,
    "rtículos</w>": 5129,
    "artículos</w>": 5130,
    "biblioteca</w>": 5131,
    "poni": 5132,
    "gicos</w>": 5133,
    "neos</w>": 5134,
    "emperad": 5135,
    "disput": 5136,
    "riencia</w>": 5137,
    "nifica</w>": 5138,
    "gnifica</w>": 5139,
    "tz": 5140,
    "líticas</w>": 5141,
    "puente</w>": 5142,
    "inició</w>": 5143,
    "uestra": 5144,
    "retir": 5145,
    "into</w>": 5146,
    "alc": 5147,
    "taria</w>": 5148,
    "tiendo</w>": 5149,
    "cluyen</w>": 5150,
    "cará": 5151,
    "entidad</w>": 5152,
    "conform": 5153,
    "nacido</w>": 5154,
    "ambas</w>": 5155,
    "rani": 5156,
    "ignifica</w>": 5157,
    "sofí": 5158,
    "sofía</w>": 5159,
    "porta": 5160,
    "mane": 5161,
    "significa</w>": 5162,
    "roductos</w>": 5163,
    "productos</w>": 5164,
    "complej": 5165,
    "rtes</w>": 5166,
    "king</w>": 5167,
    "namiento</w>": 5168,
    "boración</w>": 5169,
    "emperado": 5170,
    "cint": 5171,
    "oma</w>": 5172,
    "ortes</w>": 5173,
    "iera": 5174,
    "aboración</w>": 5175,
    "laboración</w>": 5176,
    "bana</w>": 5177,
    "entrevi": 5178,
    "enem": 5179,
    "idamente</w>": 5180,
    "concu": 5181,
    "representac": 5182,
    "representaci": 5183,
    "soni": 5184,
    "entrevis": 5185,
    "entrevist": 5186,
    "olíticas</w>": 5187,
    "versione": 5188,
    "hermano": 5189,
    "representant": 5190,
    "hermanos</w>": 5191,
    "estaciones</w>": 5192,
    "versiones</w>": 5193,
    "lino</w>": 5194,
    "sticia</w>": 5195,
    "ida": 5196,
    "usticia</w>": 5197,
    "alis": 5198,
    "justicia</w>": 5199,
    "ncluyen</w>": 5200,
    "incluyen</w>": 5201,
    "etes</w>": 5202,
    "prote": 5203,
    "locales</w>": 5204,
    "abras</w>": 5205,
    "etro</w>": 5206,
    "oción</w>": 5207,
    "influencia</w>": 5208,
    "zadas</w>": 5209,
    "cuya</w>": 5210,
    "cnica</w>": 5211,
    "crist": 5212,
    "control": 5213,
    "lizando</w>": 5214,
    "rs</w>": 5215,
    "elante</w>": 5216,
    "lanzó</w>": 5217,
    "cita": 5218,
    "arición</w>": 5219,
    "parición</w>": 5220,
    "aparición</w>": 5221,
    "saron</w>": 5222,
    "galer": 5223,
    "ágenes</w>": 5224,
    "saint</w>": 5225,
    "portes</w>": 5226,
    "monte</w>": 5227,
    "mágenes</w>": 5228,
    "imágenes</w>": 5229,
    "ctivos</w>": 5230,
    "écnica</w>": 5231,
    "técnica</w>": 5232,
    "ac</w>": 5233,
    "eber": 5234,
    "ocos</w>": 5235,
    "debut</w>": 5236,
    "xtrem": 5237,
    "delante</w>": 5238,
    "cola</w>": 5239,
    "idea</w>": 5240,
    "reras</w>": 5241,
    "acab": 5242,
    "gional</w>": 5243,
    "cuarto</w>": 5244,
    "torio</w>": 5245,
    "rtancia</w>": 5246,
    "ortancia</w>": 5247,
    "portancia</w>": 5248,
    "mportancia</w>": 5249,
    "importancia</w>": 5250,
    "ífico</w>": 5251,
    "formó</w>": 5252,
    "tuales</w>": 5253,
    "firma</w>": 5254,
    "spital</w>": 5255,
    "políticas</w>": 5256,
    "ospital</w>": 5257,
    "giones</w>": 5258,
    "hospital</w>": 5259,
    "narios</w>": 5260,
    "egional</w>": 5261,
    "regional</w>": 5262,
    "tarios</w>": 5263,
    "lov": 5264,
    "doba</w>": 5265,
    "diario</w>": 5266,
    "fons": 5267,
    "illos</w>": 5268,
    "rdoba</w>": 5269,
    "órdoba</w>": 5270,
    "córdoba</w>": 5271,
    "ficamente</w>": 5272,
    "aguas</w>": 5273,
    "enari": 5274,
    "ctivamente</w>": 5275,
    "anterior": 5276,
    "oficiale": 5277,
    "oficiales</w>": 5278,
    "tieron</w>": 5279,
    "nimo</w>": 5280,
    "bg": 5281,
    "tm": 5282,
    "íneas</w>": 5283,
    "anza": 5284,
    "eñas</w>": 5285,
    "templo</w>": 5286,
    "ndiciones</w>": 5287,
    "cy": 5288,
    "austri": 5289,
    "bano</w>": 5290,
    "abel</w>": 5291,
    "crear</w>": 5292,
    "ctica</w>": 5293,
    "pertu": 5294,
    "extrem": 5295,
    "deres</w>": 5296,
    "ómo</w>": 5297,
    "cómo</w>": 5298,
    "alde</w>": 5299,
    "venes</w>": 5300,
    "ltas</w>": 5301,
    "rid": 5302,
    "sección</w>": 5303,
    "intr": 5304,
    "sigue</w>": 5305,
    "jose": 5306,
    "dar": 5307,
    "curs": 5308,
    "atas</w>": 5309,
    "sentido</w>": 5310,
    "ocas</w>": 5311,
    "talu": 5312,
    "nen</w>": 5313,
    "estudiante": 5314,
    "estudiantes</w>": 5315,
    "ferná": 5316,
    "rantes</w>": 5317,
    "europeo</w>": 5318,
    "refo": 5319,
    "tensió": 5320,
    "plicación</w>": 5321,
    "entrenador</w>": 5322,
    "tensión</w>": 5323,
    "udi": 5324,
    "bas": 5325,
    "uruguay</w>": 5326,
    "landi": 5327,
    "consum": 5328,
    "ny": 5329,
    "secuencia</w>": 5330,
    "sho": 5331,
    "vol</w>": 5332,
    "ondiciones</w>": 5333,
    "condiciones</w>": 5334,
    "uestas</w>": 5335,
    "ty": 5336,
    "óvenes</w>": 5337,
    "jóvenes</w>": 5338,
    "bienta": 5339,
    "mbienta": 5340,
    "ambienta": 5341,
    "otación</w>": 5342,
    "dó</w>": 5343,
    "descrita</w>": 5344,
    "yr": 5345,
    "tc": 5346,
    "comercio</w>": 5347,
    "fines</w>": 5348,
    "ancias</w>": 5349,
    "ment</w>": 5350,
    "von</w>": 5351,
    "etera</w>": 5352,
    "tecn": 5353,
    "yeron</w>": 5354,
    "ere": 5355,
    "pertur": 5356,
    "ómicos</w>": 5357,
    "ao</w>": 5358,
    "pedi": 5359,
    "bur": 5360,
    "realid": 5361,
    "realida": 5362,
    "realidad</w>": 5363,
    "sci": 5364,
    "sup": 5365,
    "upación</w>": 5366,
    "jero</w>": 5367,
    "ventos</w>": 5368,
    "utiliza</w>": 5369,
    "concur": 5370,
    "actos</w>": 5371,
    "xvi": 5372,
    "iputados</w>": 5373,
    "diputados</w>": 5374,
    "jandr": 5375,
    "sencillo": 5376,
    "sencillos</w>": 5377,
    "im</w>": 5378,
    "sui": 5379,
    "ange": 5380,
    "algu": 5381,
    "irgen</w>": 5382,
    "ejandr": 5383,
    "virgen</w>": 5384,
    "lejandr": 5385,
    "alejandr": 5386,
    "hael</w>": 5387,
    "jean</w>": 5388,
    "edra": 5389,
    "líneas</w>": 5390,
    "rf": 5391,
    "estan": 5392,
    "etición</w>": 5393,
    "enemi": 5394,
    "petición</w>": 5395,
    "entí": 5396,
    "edici": 5397,
    "dor": 5398,
    "prom": 5399,
    "jeto</w>": 5400,
    "daví": 5401,
    "retr": 5402,
    "odaví": 5403,
    "todaví": 5404,
    "todavía</w>": 5405,
    "rena": 5406,
    "onos</w>": 5407,
    "ix</w>": 5408,
    "menciona": 5409,
    "du</w>": 5410,
    "profesor": 5411,
    "anál": 5412,
    "ormado</w>": 5413,
    "om</w>": 5414,
    "obis": 5415,
    "relat": 5416,
    "oz</w>": 5417,
    "natos</w>": 5418,
    "daron</w>": 5419,
    "ronto</w>": 5420,
    "poradas</w>": 5421,
    "mporadas</w>": 5422,
    "emporadas</w>": 5423,
    "temporadas</w>": 5424,
    "gonzá": 5425,
    "gonzál": 5426,
    "refor": 5427,
    "formado</w>": 5428,
    "temperat": 5429,
    "medici": 5430,
    "tesis</w>": 5431,
    "temperatu": 5432,
    "príncipe</w>": 5433,
    "temperatur": 5434,
    "gonzále": 5435,
    "gonzález</w>": 5436,
    "elo</w>": 5437,
    "ang</w>": 5438,
    "une</w>": 5439,
    "samente</w>": 5440,
    "vor</w>": 5441,
    "medicin": 5442,
    "rario</w>": 5443,
    "musi": 5444,
    "ginalmente</w>": 5445,
    "cara</w>": 5446,
    "comité</w>": 5447,
    "istros</w>": 5448,
    "ux": 5449,
    "esía</w>": 5450,
    "eter</w>": 5451,
    "literar": 5452,
    "carác": 5453,
    "lora</w>": 5454,
    "izquierda</w>": 5455,
    "obisp": 5456,
    "venida</w>": 5457,
    "vador</w>": 5458,
    "reado</w>": 5459,
    "considerado</w>": 5460,
    "sociali": 5461,
    "lando</w>": 5462,
    "caráct": 5463,
    "carácte": 5464,
    "carácter</w>": 5465,
    "sierra</w>": 5466,
    "iginalmente</w>": 5467,
    "riginalmente</w>": 5468,
    "originalmente</w>": 5469,
    "onstitución</w>": 5470,
    "constitución</w>": 5471,
    "peso</w>": 5472,
    "iedra</w>": 5473,
    "omano</w>": 5474,
    "cionados</w>": 5475,
    "bon": 5476,
    "pasado</w>": 5477,
    "aparece": 5478,
    "alta": 5479,
    "hen</w>": 5480,
    "tru": 5481,
    "contab": 5482,
    "oman": 5483,
    "onom": 5484,
    "tecno": 5485,
    "emento</w>": 5486,
    "qué</w>": 5487,
    "cencia</w>": 5488,
    "padres</w>": 5489,
    "retario</w>": 5490,
    "cretario</w>": 5491,
    "ecretario</w>": 5492,
    "secretario</w>": 5493,
    "tecnol": 5494,
    "tecnolo": 5495,
    "tecnolog": 5496,
    "kh": 5497,
    "olonia</w>": 5498,
    "comed": 5499,
    "terre": 5500,
    "obispo</w>": 5501,
    "algun": 5502,
    "eones</w>": 5503,
    "you</w>": 5504,
    "eográfica</w>": 5505,
    "peru": 5506,
    "aller": 5507,
    "amentos</w>": 5508,
    "echos</w>": 5509,
    "estrat": 5510,
    "maria</w>": 5511,
    "lab": 5512,
    "labras</w>": 5513,
    "casó</w>": 5514,
    "planet": 5515,
    "tecnologí": 5516,
    "tecnología</w>": 5517,
    "ulari": 5518,
    "entó</w>": 5519,
    "viern": 5520,
    "unciona": 5521,
    "funciona": 5522,
    "jado</w>": 5523,
    "interc": 5524,
    "escrito</w>": 5525,
    "geográfica</w>": 5526,
    "uador</w>": 5527,
    "viaje</w>": 5528,
    "retera</w>": 5529,
    "onal": 5530,
    "amena": 5531,
    "glos</w>": 5532,
    "comienza</w>": 5533,
    "antu": 5534,
    "ocin": 5535,
    "esario</w>": 5536,
    "rretera</w>": 5537,
    "arretera</w>": 5538,
    "verda": 5539,
    "archiv": 5540,
    "renta</w>": 5541,
    "sticos</w>": 5542,
    "razas</w>": 5543,
    "onist": 5544,
    "piedra</w>": 5545,
    "quel</w>": 5546,
    "doming": 5547,
    "untamiento</w>": 5548,
    "eados</w>": 5549,
    "chael</w>": 5550,
    "onista</w>": 5551,
    "cris": 5552,
    "fernán": 5553,
    "stente</w>": 5554,
    "yuntamiento</w>": 5555,
    "fernánd": 5556,
    "ayuntamiento</w>": 5557,
    "formar</w>": 5558,
    "ym": 5559,
    "cantó": 5560,
    "cantón</w>": 5561,
    "viert": 5562,
    "andal": 5563,
    "fc</w>": 5564,
    "round</w>": 5565,
    "egada</w>": 5566,
    "buena</w>": 5567,
    "fernánde": 5568,
    "alabr": 5569,
    "fernández</w>": 5570,
    "evamente</w>": 5571,
    "uevamente</w>": 5572,
    "nuevamente</w>": 5573,
    "lamento</w>": 5574,
    "frenta": 5575,
    "amenaz": 5576,
    "lético</w>": 5577,
    "istente</w>": 5578,
    "coli": 5579,
    "rab": 5580,
    "rou": 5581,
    "xix</w>": 5582,
    "enfrenta": 5583,
    "rech": 5584,
    "tección</w>": 5585,
    "sum": 5586,
    "convertir": 5587,
    "emperador</w>": 5588,
    "literari": 5589,
    "fectos</w>": 5590,
    "parroquia</w>": 5591,
    "geles</w>": 5592,
    "trado</w>": 5593,
    "intos</w>": 5594,
    "carretera</w>": 5595,
    "biendo</w>": 5596,
    "evilla</w>": 5597,
    "yores</w>": 5598,
    "ayores</w>": 5599,
    "mayores</w>": 5600,
    "portuga": 5601,
    "constan": 5602,
    "inicio</w>": 5603,
    "ratado</w>": 5604,
    "socialis": 5605,
    "tlético</w>": 5606,
    "atlético</w>": 5607,
    "edes</w>": 5608,
    "comandan": 5609,
    "cie": 5610,
    "portugal</w>": 5611,
    "ichael</w>": 5612,
    "michael</w>": 5613,
    "kr": 5614,
    "adición</w>": 5615,
    "restos</w>": 5616,
    "eniente</w>": 5617,
    "tuciona": 5618,
    "ituciona": 5619,
    "tituciona": 5620,
    "stituciona": 5621,
    "nstituciona": 5622,
    "avor</w>": 5623,
    "fue": 5624,
    "contrato</w>": 5625,
    "lago</w>": 5626,
    "alar": 5627,
    "favor</w>": 5628,
    "putado</w>": 5629,
    "sq": 5630,
    "érez</w>": 5631,
    "ópter": 5632,
    "tw": 5633,
    "mposición</w>": 5634,
    "suiz": 5635,
    "diversi": 5636,
    "play": 5637,
    "empezó</w>": 5638,
    "ites</w>": 5639,
    "reb": 5640,
    "comandant": 5641,
    "usto</w>": 5642,
    "tratado</w>": 5643,
    "galerí": 5644,
    "ordenada": 5645,
    "ordenadas</w>": 5646,
    "lleció</w>": 5647,
    "cuador</w>": 5648,
    "ofund": 5649,
    "ecuador</w>": 5650,
    "ngeles</w>": 5651,
    "ángeles</w>": 5652,
    "alabras</w>": 5653,
    "palabras</w>": 5654,
    "orías</w>": 5655,
    "ear": 5656,
    "rofund": 5657,
    "profund": 5658,
    "trabajar</w>": 5659,
    "iende</w>": 5660,
    "berna": 5661,
    "coraz": 5662,
    "blanca</w>": 5663,
    "hú": 5664,
    "rectamente</w>": 5665,
    "alleció</w>": 5666,
    "falleció</w>": 5667,
    "comercial": 5668,
    "music</w>": 5669,
    "rojo</w>": 5670,
    "máticas</w>": 5671,
    "gico</w>": 5672,
    "fueg": 5673,
    "enga": 5674,
    "elig": 5675,
    "ruso</w>": 5676,
    "rieron</w>": 5677,
    "fuego</w>": 5678,
    "consul": 5679,
    "gresos</w>": 5680,
    "sang": 5681,
    "nentes</w>": 5682,
    "carm": 5683,
    "concep": 5684,
    "impres": 5685,
    "gestión</w>": 5686,
    "enca</w>": 5687,
    "iética</w>": 5688,
    "viética</w>": 5689,
    "oviética</w>": 5690,
    "soviética</w>": 5691,
    "otor": 5692,
    "enemig": 5693,
    "domingo</w>": 5694,
    "maria": 5695,
    "gh</w>": 5696,
    "creó</w>": 5697,
    "didas</w>": 5698,
    "ples</w>": 5699,
    "azu": 5700,
    "eorge</w>": 5701,
    "george</w>": 5702,
    "nie": 5703,
    "hl": 5704,
    "fecto</w>": 5705,
    "atalu": 5706,
    "mbios</w>": 5707,
    "construido</w>": 5708,
    "ntenido</w>": 5709,
    "racteri": 5710,
    "aracteri": 5711,
    "cim": 5712,
    "ambios</w>": 5713,
    "cambios</w>": 5714,
    "catalu": 5715,
    "anal": 5716,
    "itada</w>": 5717,
    "anteriore": 5718,
    "anteriores</w>": 5719,
    "ufri": 5720,
    "righ": 5721,
    "rella</w>": 5722,
    "relacionad": 5723,
    "efectos</w>": 5724,
    "ctivo</w>": 5725,
    "corri": 5726,
    "edral</w>": 5727,
    "cífico</w>": 5728,
    "acífico</w>": 5729,
    "pacífico</w>": 5730,
    "etamente</w>": 5731,
    "sufri": 5732,
    "eco</w>": 5733,
    "cosa": 5734,
    "norm": 5735,
    "consigui": 5736,
    "land": 5737,
    "ealizado</w>": 5738,
    "marco</w>": 5739,
    "áctica</w>": 5740,
    "ést": 5741,
    "rodr": 5742,
    "cil</w>": 5743,
    "íficamente</w>": 5744,
    "ichar": 5745,
    "estatal</w>": 5746,
    "aracteriz": 5747,
    "cra": 5748,
    "arago": 5749,
    "gara": 5750,
    "rece": 5751,
    "ingu": 5752,
    "sen</w>": 5753,
    "necesid": 5754,
    "necesida": 5755,
    "rodrí": 5756,
    "rodríg": 5757,
    "montañ": 5758,
    "consiguió</w>": 5759,
    "rodrígu": 5760,
    "rodrígue": 5761,
    "rodríguez</w>": 5762,
    "pana": 5763,
    "landia</w>": 5764,
    "encontrar</w>": 5765,
    "ecciona": 5766,
    "dy": 5767,
    "discu": 5768,
    "designa": 5769,
    "admin": 5770,
    "evento</w>": 5771,
    "sevilla</w>": 5772,
    "carga</w>": 5773,
    "caracteriz": 5774,
    "pop</w>": 5775,
    "dr</w>": 5776,
    "semana": 5777,
    "menes</w>": 5778,
    "www</w>": 5779,
    "gy</w>": 5780,
    "realizado</w>": 5781,
    "ers</w>": 5782,
    "sirv": 5783,
    "hol": 5784,
    "gura</w>": 5785,
    "comunis": 5786,
    "concl": 5787,
    "uaciones</w>": 5788,
    "puestas</w>": 5789,
    "conclu": 5790,
    "completo</w>": 5791,
    "ance</w>": 5792,
    "naria</w>": 5793,
    "junta</w>": 5794,
    "utas</w>": 5795,
    "nuestra</w>": 5796,
    "sur": 5797,
    "carb": 5798,
    "tendr": 5799,
    "resc": 5800,
    "admini": 5801,
    "adminis": 5802,
    "administ": 5803,
    "administr": 5804,
    "ebas</w>": 5805,
    "hub": 5806,
    "particula": 5807,
    "cerra": 5808,
    "metal</w>": 5809,
    "ilizado</w>": 5810,
    "ánicos</w>": 5811,
    "económica</w>": 5812,
    "creado</w>": 5813,
    "unciones</w>": 5814,
    "concept": 5815,
    "olivi": 5816,
    "tball</w>": 5817,
    "ángel</w>": 5818,
    "omenta": 5819,
    "alti": 5820,
    "allo</w>": 5821,
    "nómicos</w>": 5822,
    "religio": 5823,
    "particular</w>": 5824,
    "idera</w>": 5825,
    "onómicos</w>": 5826,
    "hit": 5827,
    "nic": 5828,
    "ridades</w>": 5829,
    "elo": 5830,
    "usado</w>": 5831,
    "aris": 5832,
    "omini": 5833,
    "kg": 5834,
    "inados</w>": 5835,
    "onamiento</w>": 5836,
    "duque</w>": 5837,
    "atra": 5838,
    "análi": 5839,
    "ting</w>": 5840,
    "anális": 5841,
    "mario</w>": 5842,
    "quiere</w>": 5843,
    "municipal": 5844,
    "nombres</w>": 5845,
    "btener</w>": 5846,
    "obtener</w>": 5847,
    "endientes</w>": 5848,
    "recimiento</w>": 5849,
    "ningú": 5850,
    "análisi": 5851,
    "ningún</w>": 5852,
    "análisis</w>": 5853,
    "germ": 5854,
    "conseg": 5855,
    "consegu": 5856,
    "enseña": 5857,
    "coch": 5858,
    "queños</w>": 5859,
    "venta</w>": 5860,
    "felip": 5861,
    "tedral</w>": 5862,
    "atedral</w>": 5863,
    "ldados</w>": 5864,
    "catedral</w>": 5865,
    "izaron</w>": 5866,
    "ngresos</w>": 5867,
    "pintu": 5868,
    "legado</w>": 5869,
    "funciones</w>": 5870,
    "richar": 5871,
    "destru": 5872,
    "xxi</w>": 5873,
    "alberto</w>": 5874,
    "vio</w>": 5875,
    "encarga": 5876,
    "operacio": 5877,
    "dieg": 5878,
    "pintur": 5879,
    "gaciones</w>": 5880,
    "operacion": 5881,
    "ásico</w>": 5882,
    "tour</w>": 5883,
    "fonso</w>": 5884,
    "posterior</w>": 5885,
    "ficaciones</w>": 5886,
    "ferrocarril</w>": 5887,
    "sito</w>": 5888,
    "igura</w>": 5889,
    "figura</w>": 5890,
    "olicit": 5891,
    "omar</w>": 5892,
    "diego</w>": 5893,
    "pintura</w>": 5894,
    "gración</w>": 5895,
    "domini": 5896,
    "ientemente</w>": 5897,
    "conservad": 5898,
    "emiti": 5899,
    "uencias</w>": 5900,
    "solicit": 5901,
    "finaliz": 5902,
    "oto</w>": 5903,
    "debut": 5904,
    "tino</w>": 5905,
    "xposición</w>": 5906,
    "exposición</w>": 5907,
    "señ": 5908,
    "smit": 5909,
    "adq": 5910,
    "adqu": 5911,
    "adqui": 5912,
    "ólares</w>": 5913,
    "dólares</w>": 5914,
    "concurs": 5915,
    "compit": 5916,
    "grana": 5917,
    "lón</w>": 5918,
    "acultad</w>": 5919,
    "facultad</w>": 5920,
    "pus": 5921,
    "omposición</w>": 5922,
    "composición</w>": 5923,
    "opuerto</w>": 5924,
    "casas</w>": 5925,
    "eropuerto</w>": 5926,
    "aeropuerto</w>": 5927,
    "banco</w>": 5928,
    "herid": 5929,
    "ws": 5930,
    "tilizado</w>": 5931,
    "ground</w>": 5932,
    "ntenta": 5933,
    "ingres": 5934,
    "utilizado</w>": 5935,
    "egiones</w>": 5936,
    "abor": 5937,
    "estudió</w>": 5938,
    "material": 5939,
    "oldados</w>": 5940,
    "soldados</w>": 5941,
    "palabr": 5942,
    "odios</w>": 5943,
    "cesió": 5944,
    "cesión</w>": 5945,
    "usos</w>": 5946,
    "rtiva</w>": 5947,
    "ív": 5948,
    "inm": 5949,
    "palabra</w>": 5950,
    "ther": 5951,
    "cicli": 5952,
    "hel": 5953,
    "nteriormente</w>": 5954,
    "ccidente</w>": 5955,
    "eventos</w>": 5956,
    "ogos</w>": 5957,
    "ep</w>": 5958,
    "greg": 5959,
    "tere": 5960,
    "onel</w>": 5961,
    "mani": 5962,
    "renu": 5963,
    "aros</w>": 5964,
    "cú": 5965,
    "eleb": 5966,
    "áv": 5967,
    "cenari": 5968,
    "lav": 5969,
    "ntener</w>": 5970,
    "madera</w>": 5971,
    "felipe</w>": 5972,
    "mina</w>": 5973,
    "organizad": 5974,
    "calde</w>": 5975,
    "seño": 5976,
    "señor</w>": 5977,
    "isla": 5978,
    "cante</w>": 5979,
    "anexo</w>": 5980,
    "toma</w>": 5981,
    "ling</w>": 5982,
    "delos</w>": 5983,
    "legada</w>": 5984,
    "intenta": 5985,
    "habr": 5986,
    "hubo</w>": 5987,
    "alianz": 5988,
    "lementa": 5989,
    "numeroso": 5990,
    "numerosos</w>": 5991,
    "femenino</w>": 5992,
    "falta</w>": 5993,
    "famo": 5994,
    "rador</w>": 5995,
    "icadas</w>": 5996,
    "limenta": 5997,
    "confir": 5998,
    "vitar</w>": 5999
  },
  "merges": [
    [
      "d",
      "e</w>"
    ],
    [
      "e",
      "n"
    ],
    [
      "e",
      "r"
    ],
    [
      "o",
      "s</w>"
    ],
    [
      "c",
      "i"
    ],
    [
      "e",
      "l</w>"
    ],
    [
      "a",
      "r"
    ],
    [
      "l",
      "a</w>"
    ],
    [
      "e",
      "s"
    ],
    [
      "c",
      "o"
    ],
    [
      "a",
      "n"
    ],
    [
      "e",
      "n</w>"
    ],
    [
      "e",
      "s</w>"
    ],
    [
      "a",
      "s</w>"
    ],
    [
      "a",
      "d"
    ],
    [
      "i",
      "n"
    ],
    [
      "o",
      "n"
    ],
    [
      "r",
      "e"
    ],
    [
      "a",
      "l"
    ],
    [
      "t",
      "i"
    ],
    [
      "o",
      "r"
    ],
    [
      "en",
      "t"
    ],
    [
      "s",
      "t"
    ],
    [
      "r",
      "i"
    ],
    [
      "u",
      "n"
    ],
    [
      "q",
      "u"
    ],
    [
      "r",
      "a"
    ],
    [
      "t",
      "a"
    ],
    [
      "i",
      "c"
    ],
    [
      "p",
      "o"
    ],
    [
      "d",
      "i"
    ],
    [
      "c",
      "a"
    ],
    [
      "ó",
      "n</w>"
    ],
    [
      "s",
      "i"
    ],
    [
      "l",
      "i"
    ],
    [
      "d",
      "o</w>"
    ],
    [
      "t",
      "r"
    ],
    [
      "a",
      "l</w>"
    ],
    [
      "p",
      "r"
    ],
    [
      "i",
      "d"
    ],
    [
      "i",
      "s"
    ],
    [
      "r",
      "o"
    ],
    [
      "l",
      "e"
    ],
    [
      "d",
      "e"
    ],
    [
      "m",
      "i"
    ],
    [
      "l",
      "os</w>"
    ],
    [
      "qu",
      "e</w>"
    ],
    [
      "l",
      "a"
    ],
    [
      "d",
      "el</w>"
    ],
    [
      "d",
      "a"
    ],
    [
      "s",
      "e</w>"
    ],
    [
      "n",
      "a"
    ],
    [
      "c",
      "u"
    ],
    [
      "a",
      "c"
    ],
    [
      "e",
      "m"
    ],
    [
      "e",
      "c"
    ],
    [
      "es",
      "t"
    ],
    [
      "v",
      "i"
    ],
    [
      "p",
      "a"
    ],
    [
      "a",
      "m"
    ],
    [
      "e",
      "l"
    ],
    [
      "m",
      "a"
    ],
    [
      "ci",
      "ó"
    ],
    [
      "ció",
      "n</w>"
    ],
    [
      "a",
      "t"
    ],
    [
      "i",
      "t"
    ],
    [
      "n",
      "t"
    ],
    [
      "n",
      "i"
    ],
    [
      "t",
      "e"
    ],
    [
      "t",
      "o"
    ],
    [
      "a",
      "b"
    ],
    [
      "p",
      "ar"
    ],
    [
      "o",
      "l"
    ],
    [
      "s",
      "e"
    ],
    [
      "b",
      "i"
    ],
    [
      "t",
      "u"
    ],
    [
      "m",
      "p"
    ],
    [
      "b",
      "r"
    ],
    [
      "o",
      "m"
    ],
    [
      "i",
      "a</w>"
    ],
    [
      "u",
      "r"
    ],
    [
      "l",
      "as</w>"
    ],
    [
      "s",
      "o"
    ],
    [
      "po",
      "r</w>"
    ],
    [
      "u",
      "n</w>"
    ],
    [
      "í",
      "a</w>"
    ],
    [
      "n",
      "e"
    ],
    [
      "co",
      "m"
    ],
    [
      "i",
      "l"
    ],
    [
      "t",
      "o</w>"
    ],
    [
      "g",
      "u"
    ],
    [
      "i",
      "m"
    ],
    [
      "s",
      "u"
    ],
    [
      "i",
      "a"
    ],
    [
      "f",
      "u"
    ],
    [
      "d",
      "o"
    ],
    [
      "t",
      "er"
    ],
    [
      "a",
      "s"
    ],
    [
      "co",
      "n</w>"
    ],
    [
      "a",
      "n</w>"
    ],
    [
      "en",
      "c"
    ],
    [
      "an",
      "t"
    ],
    [
      "a",
      "r</w>"
    ],
    [
      "ent",
      "e</w>"
    ],
    [
      "c",
      "h"
    ],
    [
      "un",
      "a</w>"
    ],
    [
      "d",
      "os</w>"
    ],
    [
      "e",
      "d"
    ],
    [
      "i",
      "o"
    ],
    [
      "l",
      "o"
    ],
    [
      "f",
      "i"
    ],
    [
      "p",
      "e"
    ],
    [
      "e",
      "g"
    ],
    [
      "m",
      "b"
    ],
    [
      "n",
      "o"
    ],
    [
      "p",
      "u"
    ],
    [
      "b",
      "a"
    ],
    [
      "s",
      "u</w>"
    ],
    [
      "e",
      "r</w>"
    ],
    [
      "c",
      "t"
    ],
    [
      "p",
      "er"
    ],
    [
      "o",
      "r</w>"
    ],
    [
      "a",
      "ción</w>"
    ],
    [
      "i",
      "o</w>"
    ],
    [
      "l",
      "o</w>"
    ],
    [
      "m",
      "e"
    ],
    [
      "r",
      "a</w>"
    ],
    [
      "i",
      "g"
    ],
    [
      "d",
      "a</w>"
    ],
    [
      "l",
      "u"
    ],
    [
      "t",
      "a</w>"
    ],
    [
      "o",
      "n</w>"
    ],
    [
      "g",
      "r"
    ],
    [
      "o",
      "s"
    ],
    [
      "b",
      "l"
    ],
    [
      "u",
      "e"
    ],
    [
      "co",
      "n"
    ],
    [
      "l",
      "l"
    ],
    [
      "p",
      "i"
    ],
    [
      "a",
      "d</w>"
    ],
    [
      "e",
      "t"
    ],
    [
      "enc",
      "i"
    ],
    [
      "u",
      "i"
    ],
    [
      "m",
      "o"
    ],
    [
      "i",
      "v"
    ],
    [
      "o",
      "c"
    ],
    [
      "ci",
      "o"
    ],
    [
      "r",
      "e</w>"
    ],
    [
      "cio",
      "n"
    ],
    [
      "m",
      "u"
    ],
    [
      "c",
      "a</w>"
    ],
    [
      "ad",
      "o</w>"
    ],
    [
      "e",
      "x"
    ],
    [
      "n",
      "d"
    ],
    [
      "a",
      "ñ"
    ],
    [
      "com",
      "o</w>"
    ],
    [
      "par",
      "a</w>"
    ],
    [
      "h",
      "a"
    ],
    [
      "c",
      "e"
    ],
    [
      "o",
      "t"
    ],
    [
      "o",
      "b"
    ],
    [
      "ent",
      "r"
    ],
    [
      "n",
      "o</w>"
    ],
    [
      "t",
      "e</w>"
    ],
    [
      "u",
      "l"
    ],
    [
      "an",
      "d"
    ],
    [
      "d",
      "u"
    ],
    [
      "s",
      "a"
    ],
    [
      "g",
      "i"
    ],
    [
      "h",
      "i"
    ],
    [
      "c",
      "r"
    ],
    [
      "u",
      "s"
    ],
    [
      "m",
      "á"
    ],
    [
      "r",
      "t"
    ],
    [
      "m",
      "ente</w>"
    ],
    [
      "f",
      "e"
    ],
    [
      "i",
      "ó"
    ],
    [
      "c",
      "o</w>"
    ],
    [
      "s",
      "p"
    ],
    [
      "i",
      "r"
    ],
    [
      "er",
      "a</w>"
    ],
    [
      "u",
      "c"
    ],
    [
      "s",
      "c"
    ],
    [
      "ad",
      "a</w>"
    ],
    [
      "en",
      "d"
    ],
    [
      "p",
      "l"
    ],
    [
      "fu",
      "e</w>"
    ],
    [
      "i",
      "ci"
    ],
    [
      "e",
      "p"
    ],
    [
      "o",
      "g"
    ],
    [
      "b",
      "o"
    ],
    [
      "i",
      "z"
    ],
    [
      "a",
      "g"
    ],
    [
      "a",
      "p"
    ],
    [
      "en",
      "e"
    ],
    [
      "u",
      "t"
    ],
    [
      "j",
      "u"
    ],
    [
      "v",
      "a"
    ],
    [
      "u",
      "er"
    ],
    [
      "m",
      "a</w>"
    ],
    [
      "r",
      "u"
    ],
    [
      "m",
      "ar"
    ],
    [
      "l",
      "e</w>"
    ],
    [
      "l",
      "es</w>"
    ],
    [
      "i",
      "er"
    ],
    [
      "i",
      "b"
    ],
    [
      "i",
      "ent"
    ],
    [
      "g",
      "a"
    ],
    [
      "n",
      "c"
    ],
    [
      "u",
      "d"
    ],
    [
      "a",
      "dos</w>"
    ],
    [
      "o",
      "d"
    ],
    [
      "es",
      "p"
    ],
    [
      "e",
      "f"
    ],
    [
      "t",
      "os</w>"
    ],
    [
      "c",
      "l"
    ],
    [
      "e",
      "v"
    ],
    [
      "b",
      "u"
    ],
    [
      "v",
      "e"
    ],
    [
      "a",
      "u"
    ],
    [
      "r",
      "es</w>"
    ],
    [
      "o",
      "v"
    ],
    [
      "f",
      "r"
    ],
    [
      "cion",
      "e"
    ],
    [
      "cione",
      "s</w>"
    ],
    [
      "u",
      "a"
    ],
    [
      "n",
      "s"
    ],
    [
      "o",
      "p"
    ],
    [
      "n",
      "a</w>"
    ],
    [
      "v",
      "er"
    ],
    [
      "est",
      "a"
    ],
    [
      "u",
      "m"
    ],
    [
      "g",
      "o</w>"
    ],
    [
      "r",
      "o</w>"
    ],
    [
      "h",
      "o"
    ],
    [
      "n",
      "ci"
    ],
    [
      "i",
      "f"
    ],
    [
      "e",
      "j"
    ],
    [
      "u",
      "b"
    ],
    [
      "e",
      "ci"
    ],
    [
      "a",
      "j"
    ],
    [
      "z",
      "a"
    ],
    [
      "i",
      "os</w>"
    ],
    [
      "f",
      "o"
    ],
    [
      "g",
      "o"
    ],
    [
      "r",
      "m"
    ],
    [
      "m",
      "ent"
    ],
    [
      "f",
      "a"
    ],
    [
      "ant",
      "e</w>"
    ],
    [
      "m",
      "o</w>"
    ],
    [
      "ar",
      "i"
    ],
    [
      "má",
      "s</w>"
    ],
    [
      "l",
      "í"
    ],
    [
      "en",
      "s"
    ],
    [
      "é",
      "s</w>"
    ],
    [
      "t",
      "h"
    ],
    [
      "v",
      "o</w>"
    ],
    [
      "i",
      "p"
    ],
    [
      "d",
      "er"
    ],
    [
      "m",
      "er"
    ],
    [
      "e",
      "b"
    ],
    [
      "p",
      "o</w>"
    ],
    [
      "par",
      "t"
    ],
    [
      "r",
      "r"
    ],
    [
      "enci",
      "a"
    ],
    [
      "i",
      "é"
    ],
    [
      "s",
      "er"
    ],
    [
      "r",
      "g"
    ],
    [
      "and",
      "o</w>"
    ],
    [
      "i",
      "e"
    ],
    [
      "n",
      "ter"
    ],
    [
      "t",
      "or"
    ],
    [
      "g",
      "ra"
    ],
    [
      "c",
      "os</w>"
    ],
    [
      "u",
      "g"
    ],
    [
      "r",
      "es"
    ],
    [
      "é",
      "n</w>"
    ],
    [
      "b",
      "a</w>"
    ],
    [
      "enci",
      "a</w>"
    ],
    [
      "r",
      "as</w>"
    ],
    [
      "i",
      "ó</w>"
    ],
    [
      "j",
      "o</w>"
    ],
    [
      "l",
      "t"
    ],
    [
      "r",
      "í"
    ],
    [
      "ta",
      "m"
    ],
    [
      "v",
      "a</w>"
    ],
    [
      "a",
      "v"
    ],
    [
      "z",
      "a</w>"
    ],
    [
      "n",
      "os</w>"
    ],
    [
      "i",
      "st"
    ],
    [
      "r",
      "os</w>"
    ],
    [
      "su",
      "s</w>"
    ],
    [
      "c",
      "ar"
    ],
    [
      "es",
      "c"
    ],
    [
      "m",
      "ient"
    ],
    [
      "e",
      "a"
    ],
    [
      "n",
      "u"
    ],
    [
      "encia",
      "s</w>"
    ],
    [
      "v",
      "o"
    ],
    [
      "i",
      "dos</w>"
    ],
    [
      "br",
      "e</w>"
    ],
    [
      "o",
      "f"
    ],
    [
      "tam",
      "b"
    ],
    [
      "g",
      "l"
    ],
    [
      "tamb",
      "i"
    ],
    [
      "tambi",
      "é"
    ],
    [
      "tambié",
      "n</w>"
    ],
    [
      "a",
      "les</w>"
    ],
    [
      "o",
      "ci"
    ],
    [
      "co",
      "l"
    ],
    [
      "ic",
      "a</w>"
    ],
    [
      "al",
      "i"
    ],
    [
      "b",
      "er"
    ],
    [
      "cion",
      "a"
    ],
    [
      "c",
      "ción</w>"
    ],
    [
      "s",
      "o</w>"
    ],
    [
      "ver",
      "s"
    ],
    [
      "h",
      "a</w>"
    ],
    [
      "d",
      "as</w>"
    ],
    [
      "a",
      "mente</w>"
    ],
    [
      "ti",
      "c"
    ],
    [
      "un",
      "d"
    ],
    [
      "m",
      "an"
    ],
    [
      "á",
      "n"
    ],
    [
      "t",
      "as</w>"
    ],
    [
      "est",
      "e</w>"
    ],
    [
      "co",
      "r"
    ],
    [
      "i",
      "s</w>"
    ],
    [
      "a",
      "ci"
    ],
    [
      "ar",
      "r"
    ],
    [
      "s",
      "a</w>"
    ],
    [
      "i",
      "nter"
    ],
    [
      "ic",
      "o</w>"
    ],
    [
      "ñ",
      "os</w>"
    ],
    [
      "entr",
      "e</w>"
    ],
    [
      "i",
      "cos</w>"
    ],
    [
      "con",
      "t"
    ],
    [
      "en",
      "a"
    ],
    [
      "ent",
      "e"
    ],
    [
      "u",
      "p"
    ],
    [
      "l",
      "la</w>"
    ],
    [
      "es",
      "i"
    ],
    [
      "n",
      "g"
    ],
    [
      "c",
      "er"
    ],
    [
      "mient",
      "o</w>"
    ],
    [
      "b",
      "e"
    ],
    [
      "h",
      "e"
    ],
    [
      "l",
      "mente</w>"
    ],
    [
      "c",
      "e</w>"
    ],
    [
      "en",
      "i"
    ],
    [
      "g",
      "e"
    ],
    [
      "ent",
      "a"
    ],
    [
      "o",
      "res</w>"
    ],
    [
      "r",
      "encias</w>"
    ],
    [
      "r",
      "an"
    ],
    [
      "e",
      "rencias</w>"
    ],
    [
      "f",
      "erencias</w>"
    ],
    [
      "a",
      "lmente</w>"
    ],
    [
      "a",
      "y"
    ],
    [
      "end",
      "o</w>"
    ],
    [
      "n",
      "de</w>"
    ],
    [
      "j",
      "a"
    ],
    [
      "a",
      "ciones</w>"
    ],
    [
      "t",
      "ra"
    ],
    [
      "pr",
      "o"
    ],
    [
      "e",
      "ferencias</w>"
    ],
    [
      "r",
      "eferencias</w>"
    ],
    [
      "a",
      "st"
    ],
    [
      "l",
      "an"
    ],
    [
      "s",
      "m"
    ],
    [
      "á",
      "n</w>"
    ],
    [
      "est",
      "a</w>"
    ],
    [
      "ene",
      "r"
    ],
    [
      "h",
      "u"
    ],
    [
      "ñ",
      "a</w>"
    ],
    [
      "a",
      "ños</w>"
    ],
    [
      "l",
      "ar"
    ],
    [
      "u",
      "e</w>"
    ],
    [
      "tor",
      "i"
    ],
    [
      "x",
      "i"
    ],
    [
      "g",
      "a</w>"
    ],
    [
      "a",
      "z"
    ],
    [
      "th",
      "e</w>"
    ],
    [
      "f",
      "í"
    ],
    [
      "ant",
      "e"
    ],
    [
      "en",
      "o"
    ],
    [
      "e",
      "o"
    ],
    [
      "ar",
      "t"
    ],
    [
      "e",
      "ñ"
    ],
    [
      "n",
      "es</w>"
    ],
    [
      "i",
      "r</w>"
    ],
    [
      "r",
      "á"
    ],
    [
      "i",
      "endo</w>"
    ],
    [
      "con",
      "s"
    ],
    [
      "vers",
      "i"
    ],
    [
      "i",
      "en"
    ],
    [
      "n",
      "f"
    ],
    [
      "com",
      "p"
    ],
    [
      "í",
      "a"
    ],
    [
      "ante",
      "s</w>"
    ],
    [
      "t",
      "ados</w>"
    ],
    [
      "i",
      "ción</w>"
    ],
    [
      "est",
      "i"
    ],
    [
      "f",
      "or"
    ],
    [
      "i",
      "nci"
    ],
    [
      "per",
      "s"
    ],
    [
      "ter",
      "n"
    ],
    [
      "f",
      "uer"
    ],
    [
      "o",
      "u"
    ],
    [
      "esp",
      "a"
    ],
    [
      "c",
      "as</w>"
    ],
    [
      "j",
      "e"
    ],
    [
      "entr",
      "a"
    ],
    [
      "est",
      "r"
    ],
    [
      "m",
      "é"
    ],
    [
      "er",
      "o</w>"
    ],
    [
      "b",
      "ar"
    ],
    [
      "e",
      "u"
    ],
    [
      "m",
      "in"
    ],
    [
      "t",
      "ros</w>"
    ],
    [
      "o",
      "gra"
    ],
    [
      "s",
      "de</w>"
    ],
    [
      "e",
      "sde</w>"
    ],
    [
      "r",
      "ante</w>"
    ],
    [
      "a",
      "f"
    ],
    [
      "d",
      "esde</w>"
    ],
    [
      "h",
      "ab"
    ],
    [
      "r",
      "d"
    ],
    [
      "so",
      "n</w>"
    ],
    [
      "o",
      "bre</w>"
    ],
    [
      "s",
      "obre</w>"
    ],
    [
      "a",
      "ciona"
    ],
    [
      "y",
      "a</w>"
    ],
    [
      "c",
      "an"
    ],
    [
      "ti",
      "v"
    ],
    [
      "ad",
      "o"
    ],
    [
      "í",
      "c"
    ],
    [
      "m",
      "as</w>"
    ],
    [
      "o",
      "nde</w>"
    ],
    [
      "or",
      "t"
    ],
    [
      "d",
      "es</w>"
    ],
    [
      "un",
      "i"
    ],
    [
      "a",
      "nci"
    ],
    [
      "ar",
      "o"
    ],
    [
      "per",
      "o</w>"
    ],
    [
      "ast",
      "a</w>"
    ],
    [
      "ent",
      "i"
    ],
    [
      "ci",
      "u"
    ],
    [
      "espa",
      "ñ"
    ],
    [
      "u",
      "rante</w>"
    ],
    [
      "d",
      "urante</w>"
    ],
    [
      "a",
      "i"
    ],
    [
      "j",
      "o"
    ],
    [
      "o",
      "nes</w>"
    ],
    [
      "ciu",
      "d"
    ],
    [
      "ciud",
      "a"
    ],
    [
      "h",
      "er"
    ],
    [
      "í",
      "s"
    ],
    [
      "x",
      "p"
    ],
    [
      "re",
      "a"
    ],
    [
      "h",
      "asta</w>"
    ],
    [
      "t",
      "ras</w>"
    ],
    [
      "t",
      "en"
    ],
    [
      "part",
      "e</w>"
    ],
    [
      "u",
      "é"
    ],
    [
      "en",
      "l"
    ],
    [
      "z",
      "o</w>"
    ],
    [
      "f",
      "l"
    ],
    [
      "r",
      "s"
    ],
    [
      "p",
      "a</w>"
    ],
    [
      "ue",
      "v"
    ],
    [
      "i",
      "ente</w>"
    ],
    [
      "u",
      "s</w>"
    ],
    [
      "añ",
      "o</w>"
    ],
    [
      "d",
      "esp"
    ],
    [
      "enl",
      "a"
    ],
    [
      "a",
      "das</w>"
    ],
    [
      "pers",
      "o"
    ],
    [
      "n",
      "uev"
    ],
    [
      "tori",
      "a</w>"
    ],
    [
      "ri",
      "c"
    ],
    [
      "ici",
      "p"
    ],
    [
      "perso",
      "n"
    ],
    [
      "al",
      "l"
    ],
    [
      "enla",
      "c"
    ],
    [
      "x",
      "tern"
    ],
    [
      "e",
      "xtern"
    ],
    [
      "t",
      "í"
    ],
    [
      "cont",
      "r"
    ],
    [
      "i",
      "n</w>"
    ],
    [
      "l",
      "ación</w>"
    ],
    [
      "in",
      "a"
    ],
    [
      "i",
      "e</w>"
    ],
    [
      "ment",
      "o</w>"
    ],
    [
      "s",
      "h"
    ],
    [
      "l",
      "g"
    ],
    [
      "enlac",
      "e"
    ],
    [
      "enlace",
      "s</w>"
    ],
    [
      "é",
      "r"
    ],
    [
      "extern",
      "o"
    ],
    [
      "externo",
      "s</w>"
    ],
    [
      "part",
      "i"
    ],
    [
      "in",
      "g"
    ],
    [
      "m",
      "on"
    ],
    [
      "tr",
      "o</w>"
    ],
    [
      "u",
      "y"
    ],
    [
      "e",
      "di"
    ],
    [
      "i",
      "cas</w>"
    ],
    [
      "ca",
      "s"
    ],
    [
      "u",
      "al</w>"
    ],
    [
      "n",
      "v"
    ],
    [
      "ser",
      "v"
    ],
    [
      "ta",
      "l</w>"
    ],
    [
      "f",
      "er"
    ],
    [
      "d",
      "r"
    ],
    [
      "i",
      "an"
    ],
    [
      "d",
      "onde</w>"
    ],
    [
      "in",
      "a</w>"
    ],
    [
      "aro",
      "n</w>"
    ],
    [
      "s",
      "tas</w>"
    ],
    [
      "c",
      "ada</w>"
    ],
    [
      "for",
      "m"
    ],
    [
      "ente",
      "s</w>"
    ],
    [
      "esc",
      "r"
    ],
    [
      "ter",
      "i"
    ],
    [
      "si",
      "n</w>"
    ],
    [
      "ant",
      "i"
    ],
    [
      "á",
      "l"
    ],
    [
      "ien",
      "e</w>"
    ],
    [
      "r",
      "eci"
    ],
    [
      "escr",
      "i"
    ],
    [
      "est",
      "o</w>"
    ],
    [
      "ad",
      "r"
    ],
    [
      "desp",
      "u"
    ],
    [
      "ma",
      "y"
    ],
    [
      "despu",
      "é"
    ],
    [
      "despué",
      "s</w>"
    ],
    [
      "n",
      "aciona"
    ],
    [
      "er",
      "a"
    ],
    [
      "person",
      "a"
    ],
    [
      "se",
      "r</w>"
    ],
    [
      "x",
      "t"
    ],
    [
      "i",
      "stas</w>"
    ],
    [
      "ciuda",
      "d</w>"
    ],
    [
      "g",
      "n"
    ],
    [
      "m",
      "is"
    ],
    [
      "un",
      "t"
    ],
    [
      "ú",
      "n</w>"
    ],
    [
      "ca",
      "m"
    ],
    [
      "er",
      "o"
    ],
    [
      "tic",
      "a</w>"
    ],
    [
      "j",
      "a</w>"
    ],
    [
      "p",
      "ri"
    ],
    [
      "e",
      "o</w>"
    ],
    [
      "col",
      "o"
    ],
    [
      "e",
      "z"
    ],
    [
      "i",
      "li"
    ],
    [
      "l",
      "le"
    ],
    [
      "d",
      "í"
    ],
    [
      "v",
      "e</w>"
    ],
    [
      "z",
      "ó</w>"
    ],
    [
      "g",
      "os</w>"
    ],
    [
      "m",
      "era</w>"
    ],
    [
      "ier",
      "o"
    ],
    [
      "esta",
      "d"
    ],
    [
      "re",
      "c"
    ],
    [
      "i",
      "versi"
    ],
    [
      "p",
      "res"
    ],
    [
      "u",
      "j"
    ],
    [
      "t",
      "iene</w>"
    ],
    [
      "p",
      "eci"
    ],
    [
      "al",
      "t"
    ],
    [
      "s",
      "peci"
    ],
    [
      "f",
      "ici"
    ],
    [
      "i",
      "mera</w>"
    ],
    [
      "e",
      "z</w>"
    ],
    [
      "h",
      "o</w>"
    ],
    [
      "r",
      "ios</w>"
    ],
    [
      "o",
      "f</w>"
    ],
    [
      "g",
      "ener"
    ],
    [
      "r",
      "imera</w>"
    ],
    [
      "p",
      "rimera</w>"
    ],
    [
      "iero",
      "n</w>"
    ],
    [
      "n",
      "as</w>"
    ],
    [
      "qu",
      "i"
    ],
    [
      "hab",
      "í"
    ],
    [
      "s",
      "os</w>"
    ],
    [
      "g",
      "an"
    ],
    [
      "ti",
      "e"
    ],
    [
      "i",
      "miento</w>"
    ],
    [
      "per",
      "a"
    ],
    [
      "ari",
      "o</w>"
    ],
    [
      "ad",
      "e"
    ],
    [
      "tie",
      "m"
    ],
    [
      "ment",
      "a"
    ],
    [
      "ogra",
      "f"
    ],
    [
      "á",
      "s</w>"
    ],
    [
      "o",
      "l</w>"
    ],
    [
      "per",
      "i"
    ],
    [
      "u",
      "ando</w>"
    ],
    [
      "p",
      "t"
    ],
    [
      "in",
      "o</w>"
    ],
    [
      "ograf",
      "í"
    ],
    [
      "ografí",
      "a</w>"
    ],
    [
      "c",
      "ación</w>"
    ],
    [
      "s",
      "an</w>"
    ],
    [
      "b",
      "ri"
    ],
    [
      "e",
      "cción</w>"
    ],
    [
      "s",
      "tados</w>"
    ],
    [
      "gener",
      "a"
    ],
    [
      "r",
      "ación</w>"
    ],
    [
      "t",
      "á"
    ],
    [
      "uer",
      "t"
    ],
    [
      "e",
      "de</w>"
    ],
    [
      "d",
      "en</w>"
    ],
    [
      "e",
      "speci"
    ],
    [
      "c",
      "uando</w>"
    ],
    [
      "b",
      "ier"
    ],
    [
      "e",
      "i"
    ],
    [
      "in",
      "t"
    ],
    [
      "e",
      "stados</w>"
    ],
    [
      "n",
      "e</w>"
    ],
    [
      "mis",
      "m"
    ],
    [
      "n",
      "iversi"
    ],
    [
      "u",
      "niversi"
    ],
    [
      "a",
      "des</w>"
    ],
    [
      "ent",
      "a</w>"
    ],
    [
      "est",
      "á</w>"
    ],
    [
      "ado",
      "r</w>"
    ],
    [
      "n",
      "idos</w>"
    ],
    [
      "s",
      "oci"
    ],
    [
      "j",
      "e</w>"
    ],
    [
      "m",
      "bre</w>"
    ],
    [
      "o",
      "mbre</w>"
    ],
    [
      "pri",
      "m"
    ],
    [
      "g",
      "í"
    ],
    [
      "ñ",
      "o</w>"
    ],
    [
      "m",
      "und"
    ],
    [
      "r",
      "c"
    ],
    [
      "re",
      "g"
    ],
    [
      "l",
      "é"
    ],
    [
      "in",
      "d"
    ],
    [
      "i",
      "do</w>"
    ],
    [
      "s",
      "toria</w>"
    ],
    [
      "a",
      "miento</w>"
    ],
    [
      "in",
      "c"
    ],
    [
      "ter",
      "r"
    ],
    [
      "i",
      "storia</w>"
    ],
    [
      "h",
      "istoria</w>"
    ],
    [
      "der",
      "a"
    ],
    [
      "naciona",
      "l</w>"
    ],
    [
      "a",
      "nos</w>"
    ],
    [
      "tic",
      "o</w>"
    ],
    [
      "t",
      "ar"
    ],
    [
      "p",
      "os</w>"
    ],
    [
      "v",
      "é"
    ],
    [
      "entr",
      "o</w>"
    ],
    [
      "d",
      "ades</w>"
    ],
    [
      "a",
      "rios</w>"
    ],
    [
      "g",
      "und"
    ],
    [
      "a",
      "se</w>"
    ],
    [
      "u",
      "nidos</w>"
    ],
    [
      "e",
      "gund"
    ],
    [
      "s",
      "egund"
    ],
    [
      "en",
      "a</w>"
    ],
    [
      "é",
      "n"
    ],
    [
      "ser",
      "i"
    ],
    [
      "gra",
      "n</w>"
    ],
    [
      "g",
      "uer"
    ],
    [
      "c",
      "í"
    ],
    [
      "v",
      "os</w>"
    ],
    [
      "p",
      "ú"
    ],
    [
      "ci",
      "n"
    ],
    [
      "r",
      "ado</w>"
    ],
    [
      "i",
      "ón</w>"
    ],
    [
      "e",
      "a</w>"
    ],
    [
      "i",
      "en</w>"
    ],
    [
      "c",
      "es"
    ],
    [
      "r",
      "n"
    ],
    [
      "r",
      "ada</w>"
    ],
    [
      "esta",
      "b"
    ],
    [
      "m",
      "en"
    ],
    [
      "u",
      "eg"
    ],
    [
      "o",
      "tros</w>"
    ],
    [
      "t",
      "t"
    ],
    [
      "s",
      "enta"
    ],
    [
      "qu",
      "e"
    ],
    [
      "u",
      "v"
    ],
    [
      "anci",
      "a</w>"
    ],
    [
      "ú",
      "b"
    ],
    [
      "unt",
      "o</w>"
    ],
    [
      "on",
      "a"
    ],
    [
      "g",
      "ar</w>"
    ],
    [
      "g",
      "e</w>"
    ],
    [
      "inter",
      "n"
    ],
    [
      "si",
      "g"
    ],
    [
      "e",
      "q"
    ],
    [
      "est",
      "u"
    ],
    [
      "u",
      "cción</w>"
    ],
    [
      "ade",
      "m"
    ],
    [
      "t",
      "ó</w>"
    ],
    [
      "m",
      "edi"
    ],
    [
      "m",
      "os</w>"
    ],
    [
      "g",
      "ar"
    ],
    [
      "españ",
      "a</w>"
    ],
    [
      "y",
      "e"
    ],
    [
      "habí",
      "a</w>"
    ],
    [
      "u",
      "la</w>"
    ],
    [
      "prim",
      "e"
    ],
    [
      "arr",
      "o"
    ],
    [
      "m",
      "e</w>"
    ],
    [
      "prime",
      "r</w>"
    ],
    [
      "i",
      "dades</w>"
    ],
    [
      "l",
      "v"
    ],
    [
      "í",
      "n</w>"
    ],
    [
      "guer",
      "r"
    ],
    [
      "l",
      "ó"
    ],
    [
      "estad",
      "o</w>"
    ],
    [
      "re",
      "m"
    ],
    [
      "un",
      "o</w>"
    ],
    [
      "o",
      "st"
    ],
    [
      "p",
      "la"
    ],
    [
      "d",
      "ios</w>"
    ],
    [
      "i",
      "l</w>"
    ],
    [
      "ti",
      "m"
    ],
    [
      "t",
      "b"
    ],
    [
      "se",
      "g"
    ],
    [
      "s",
      "tos</w>"
    ],
    [
      "e",
      "senta"
    ],
    [
      "r",
      "esenta"
    ],
    [
      "p",
      "resenta"
    ],
    [
      "e",
      "la</w>"
    ],
    [
      "oci",
      "d"
    ],
    [
      "fuer",
      "o"
    ],
    [
      "ó",
      "r"
    ],
    [
      "d",
      "es"
    ],
    [
      "u",
      "ción</w>"
    ],
    [
      "o",
      "do</w>"
    ],
    [
      "fuero",
      "n</w>"
    ],
    [
      "t",
      "ación</w>"
    ],
    [
      "r",
      "inci"
    ],
    [
      "p",
      "rinci"
    ],
    [
      "princi",
      "p"
    ],
    [
      "ú",
      "l"
    ],
    [
      "s",
      "ión</w>"
    ],
    [
      "u",
      "nos</w>"
    ],
    [
      "ó",
      "n"
    ],
    [
      "m",
      "ili"
    ],
    [
      "ali",
      "d"
    ],
    [
      "t",
      "é"
    ],
    [
      "mar",
      "i"
    ],
    [
      "n",
      "ombre</w>"
    ],
    [
      "ueg",
      "o</w>"
    ],
    [
      "t",
      "ó"
    ],
    [
      "é",
      "x"
    ],
    [
      "c",
      "á"
    ],
    [
      "id",
      "a</w>"
    ],
    [
      "ist",
      "a</w>"
    ],
    [
      "ina",
      "l</w>"
    ],
    [
      "n",
      "icip"
    ],
    [
      "u",
      "nicip"
    ],
    [
      "m",
      "unicip"
    ],
    [
      "escri",
      "t"
    ],
    [
      "universi",
      "d"
    ],
    [
      "universid",
      "a"
    ],
    [
      "i",
      "d</w>"
    ],
    [
      "í",
      "t"
    ],
    [
      "p",
      "h"
    ],
    [
      "w",
      "i"
    ],
    [
      "ba",
      "j"
    ],
    [
      "t",
      "res</w>"
    ],
    [
      "di",
      "s"
    ],
    [
      "c",
      "ado</w>"
    ],
    [
      "tiv",
      "o</w>"
    ],
    [
      "i",
      "lla</w>"
    ],
    [
      "i",
      "cación</w>"
    ],
    [
      "á",
      "f"
    ],
    [
      "í",
      "s</w>"
    ],
    [
      "co",
      "s"
    ],
    [
      "ric",
      "a</w>"
    ],
    [
      "u",
      "gar</w>"
    ],
    [
      "ant",
      "o</w>"
    ],
    [
      "ient",
      "e"
    ],
    [
      "w",
      "e"
    ],
    [
      "r",
      "on"
    ],
    [
      "mar",
      "c"
    ],
    [
      "k",
      "i"
    ],
    [
      "l",
      "istas</w>"
    ],
    [
      "o",
      "o"
    ],
    [
      "ent",
      "o"
    ],
    [
      "b",
      "e</w>"
    ],
    [
      "iente",
      "s</w>"
    ],
    [
      "o",
      "fici"
    ],
    [
      "i",
      "ta"
    ],
    [
      "ari",
      "a"
    ],
    [
      "ier",
      "r"
    ],
    [
      "t",
      "ri"
    ],
    [
      "ens",
      "i"
    ],
    [
      "ene",
      "s</w>"
    ],
    [
      "universida",
      "d</w>"
    ],
    [
      "as",
      "í</w>"
    ],
    [
      "v",
      "inci"
    ],
    [
      "c",
      "lu"
    ],
    [
      "an",
      "i"
    ],
    [
      "mism",
      "o</w>"
    ],
    [
      "o",
      "vinci"
    ],
    [
      "r",
      "ovinci"
    ],
    [
      "p",
      "rovinci"
    ],
    [
      "u",
      "ede</w>"
    ],
    [
      "d",
      "ente</w>"
    ],
    [
      "form",
      "a</w>"
    ],
    [
      "parti",
      "d"
    ],
    [
      "nuev",
      "a</w>"
    ],
    [
      "m",
      "ú"
    ],
    [
      "p",
      "uede</w>"
    ],
    [
      "d",
      "ores</w>"
    ],
    [
      "h",
      "ar"
    ],
    [
      "a",
      "mili"
    ],
    [
      "f",
      "amili"
    ],
    [
      "r",
      "en"
    ],
    [
      "z",
      "o"
    ],
    [
      "c",
      "es</w>"
    ],
    [
      "e",
      "man"
    ],
    [
      "a",
      "tro</w>"
    ],
    [
      "c",
      "uer"
    ],
    [
      "t",
      "ene"
    ],
    [
      "es",
      "e</w>"
    ],
    [
      "in",
      "g</w>"
    ],
    [
      "ort",
      "e</w>"
    ],
    [
      "enti",
      "n"
    ],
    [
      "ve",
      "z</w>"
    ],
    [
      "c",
      "c"
    ],
    [
      "r",
      "ó</w>"
    ],
    [
      "b",
      "lación</w>"
    ],
    [
      "o",
      "blación</w>"
    ],
    [
      "p",
      "oblación</w>"
    ],
    [
      "g",
      "res"
    ],
    [
      "e",
      "stos</w>"
    ],
    [
      "gr",
      "u"
    ],
    [
      "í",
      "m"
    ],
    [
      "clu",
      "b</w>"
    ],
    [
      "po",
      "d"
    ],
    [
      "e",
      "lla</w>"
    ],
    [
      "gru",
      "p"
    ],
    [
      "in",
      "s"
    ],
    [
      "í",
      "n"
    ],
    [
      "ú",
      "s"
    ],
    [
      "alid",
      "a"
    ],
    [
      "cons",
      "t"
    ],
    [
      "í",
      "as</w>"
    ],
    [
      "par",
      "a"
    ],
    [
      "guerr",
      "a</w>"
    ],
    [
      "i",
      "i</w>"
    ],
    [
      "e",
      "t</w>"
    ],
    [
      "intern",
      "a"
    ],
    [
      "o",
      "la</w>"
    ],
    [
      "par",
      "e"
    ],
    [
      "s",
      "i</w>"
    ],
    [
      "alida",
      "d</w>"
    ],
    [
      "c",
      "ciones</w>"
    ],
    [
      "re",
      "t"
    ],
    [
      "com",
      "u"
    ],
    [
      "grup",
      "o</w>"
    ],
    [
      "s",
      "s"
    ],
    [
      "on",
      "i"
    ],
    [
      "u",
      "li"
    ],
    [
      "ó",
      "m"
    ],
    [
      "n",
      "ú"
    ],
    [
      "tra",
      "b"
    ],
    [
      "t",
      "ores</w>"
    ],
    [
      "u",
      "d</w>"
    ],
    [
      "comu",
      "n"
    ],
    [
      "trab",
      "a"
    ],
    [
      "n",
      "ocid"
    ],
    [
      "o",
      "nocid"
    ],
    [
      "c",
      "onocid"
    ],
    [
      "traba",
      "j"
    ],
    [
      "j",
      "er"
    ],
    [
      "po",
      "c"
    ],
    [
      "c",
      "idos</w>"
    ],
    [
      "l",
      "ugar</w>"
    ],
    [
      "and",
      "a</w>"
    ],
    [
      "j",
      "os</w>"
    ],
    [
      "mer",
      "o</w>"
    ],
    [
      "re",
      "v"
    ],
    [
      "famili",
      "a</w>"
    ],
    [
      "mer",
      "c"
    ],
    [
      "á",
      "r"
    ],
    [
      "l",
      "d"
    ],
    [
      "h",
      "ac"
    ],
    [
      "inc",
      "l"
    ],
    [
      "aci",
      "a</w>"
    ],
    [
      "eno",
      "s</w>"
    ],
    [
      "entr",
      "a</w>"
    ],
    [
      "ar",
      "a"
    ],
    [
      "m",
      "es</w>"
    ],
    [
      "l",
      "á"
    ],
    [
      "genera",
      "l</w>"
    ],
    [
      "princip",
      "a"
    ],
    [
      "m",
      "bar"
    ],
    [
      "i",
      "cado</w>"
    ],
    [
      "k",
      "e"
    ],
    [
      "de",
      "b"
    ],
    [
      "em",
      "p"
    ],
    [
      "or",
      "a</w>"
    ],
    [
      "ci",
      "t"
    ],
    [
      "u",
      "st"
    ],
    [
      "arro",
      "l"
    ],
    [
      "i",
      "sión</w>"
    ],
    [
      "c",
      "ual</w>"
    ],
    [
      "arrol",
      "l"
    ],
    [
      "incl",
      "u"
    ],
    [
      "m",
      "adr"
    ],
    [
      "cam",
      "p"
    ],
    [
      "seri",
      "e</w>"
    ],
    [
      "s",
      "ti"
    ],
    [
      "s",
      "arroll"
    ],
    [
      "e",
      "sarroll"
    ],
    [
      "d",
      "esarroll"
    ],
    [
      "ic",
      "a"
    ],
    [
      "an",
      "a</w>"
    ],
    [
      "si",
      "d"
    ],
    [
      "al",
      "e"
    ],
    [
      "a",
      "h"
    ],
    [
      "contr",
      "a</w>"
    ],
    [
      "g",
      "entin"
    ],
    [
      "r",
      "gentin"
    ],
    [
      "a",
      "rgentin"
    ],
    [
      "c",
      "tos</w>"
    ],
    [
      "ca",
      "b"
    ],
    [
      "adem",
      "á"
    ],
    [
      "ademá",
      "s</w>"
    ],
    [
      "partid",
      "o</w>"
    ],
    [
      "o",
      "dos</w>"
    ],
    [
      "i",
      "vos</w>"
    ],
    [
      "ad",
      "i"
    ],
    [
      "i",
      "dente</w>"
    ],
    [
      "z",
      "ación</w>"
    ],
    [
      "i",
      "zación</w>"
    ],
    [
      "t",
      "ado</w>"
    ],
    [
      "e",
      "qui"
    ],
    [
      "der",
      "e"
    ],
    [
      "a",
      "un"
    ],
    [
      "t",
      "antes</w>"
    ],
    [
      "may",
      "o"
    ],
    [
      "mayo",
      "r</w>"
    ],
    [
      "c",
      "ó"
    ],
    [
      "s",
      "ol"
    ],
    [
      "mu",
      "y</w>"
    ],
    [
      "t",
      "ran"
    ],
    [
      "ter",
      "m"
    ],
    [
      "estu",
      "d"
    ],
    [
      "co",
      "p"
    ],
    [
      "soci",
      "a"
    ],
    [
      "estud",
      "i"
    ],
    [
      "rea",
      "l"
    ],
    [
      "t",
      "odo</w>"
    ],
    [
      "bier",
      "n"
    ],
    [
      "o",
      "biern"
    ],
    [
      "g",
      "obiern"
    ],
    [
      "mer",
      "i"
    ],
    [
      "aun",
      "q"
    ],
    [
      "aunq",
      "u"
    ],
    [
      "aunqu",
      "e</w>"
    ],
    [
      "n",
      "tos</w>"
    ],
    [
      "end",
      "i"
    ],
    [
      "ant",
      "a</w>"
    ],
    [
      "l",
      "los</w>"
    ],
    [
      "su",
      "r</w>"
    ],
    [
      "p",
      "en"
    ],
    [
      "d",
      "ici"
    ],
    [
      "baj",
      "o</w>"
    ],
    [
      "e",
      "y</w>"
    ],
    [
      "a",
      "dores</w>"
    ],
    [
      "pa",
      "s"
    ],
    [
      "i",
      "as</w>"
    ],
    [
      "y",
      "or"
    ],
    [
      "t",
      "icos</w>"
    ],
    [
      "h",
      "an</w>"
    ],
    [
      "seg",
      "ú"
    ],
    [
      "segú",
      "n</w>"
    ],
    [
      "j",
      "uli"
    ],
    [
      "equi",
      "p"
    ],
    [
      "s",
      "l"
    ],
    [
      "e",
      "mente</w>"
    ],
    [
      "l",
      "ado</w>"
    ],
    [
      "reg",
      "i"
    ],
    [
      "g",
      "en</w>"
    ],
    [
      "m",
      "ación</w>"
    ],
    [
      "e",
      "mbar"
    ],
    [
      "ec",
      "h"
    ],
    [
      "u",
      "ra"
    ],
    [
      "u",
      "entra</w>"
    ],
    [
      "c",
      "uentra</w>"
    ],
    [
      "en",
      "cuentra</w>"
    ],
    [
      "s",
      "es</w>"
    ],
    [
      "equip",
      "o</w>"
    ],
    [
      "ar",
      "d"
    ],
    [
      "per",
      "m"
    ],
    [
      "real",
      "i"
    ],
    [
      "tu",
      "v"
    ],
    [
      "mer",
      "o"
    ],
    [
      "o",
      "ber"
    ],
    [
      "ment",
      "o"
    ],
    [
      "y",
      "u"
    ],
    [
      "tuv",
      "o</w>"
    ],
    [
      "sig",
      "l"
    ],
    [
      "bo",
      "l</w>"
    ],
    [
      "b",
      "ra"
    ],
    [
      "peri",
      "o"
    ],
    [
      "y",
      "o</w>"
    ],
    [
      "i",
      "ones</w>"
    ],
    [
      "ú",
      "n"
    ],
    [
      "ens",
      "e</w>"
    ],
    [
      "sigl",
      "o</w>"
    ],
    [
      "era",
      "n</w>"
    ],
    [
      "tiem",
      "p"
    ],
    [
      "tiemp",
      "o</w>"
    ],
    [
      "ic",
      "h"
    ],
    [
      "t",
      "es</w>"
    ],
    [
      "ten",
      "í"
    ],
    [
      "s",
      "ica</w>"
    ],
    [
      "entra",
      "s</w>"
    ],
    [
      "u",
      "a</w>"
    ],
    [
      "i",
      "entras</w>"
    ],
    [
      "m",
      "ientras</w>"
    ],
    [
      "w",
      "a"
    ],
    [
      "j",
      "unto</w>"
    ],
    [
      "k",
      "m</w>"
    ],
    [
      "interna",
      "c"
    ],
    [
      "internac",
      "i"
    ],
    [
      "cer",
      "c"
    ],
    [
      "internaci",
      "o"
    ],
    [
      "internacio",
      "n"
    ],
    [
      "s",
      "ición</w>"
    ],
    [
      "internacion",
      "a"
    ],
    [
      "ó",
      "g"
    ],
    [
      "l",
      "las</w>"
    ],
    [
      "á",
      "c"
    ],
    [
      "mento",
      "s</w>"
    ],
    [
      "sid",
      "o</w>"
    ],
    [
      "t",
      "odos</w>"
    ],
    [
      "n",
      "ción</w>"
    ],
    [
      "term",
      "i"
    ],
    [
      "o",
      "i"
    ],
    [
      "gobiern",
      "o</w>"
    ],
    [
      "u",
      "ci"
    ],
    [
      "a",
      "tos</w>"
    ],
    [
      "ó",
      "l"
    ],
    [
      "termi",
      "n"
    ],
    [
      "rec",
      "t"
    ],
    [
      "r",
      "b"
    ],
    [
      "i",
      "tos</w>"
    ],
    [
      "d",
      "é"
    ],
    [
      "c",
      "é"
    ],
    [
      "d",
      "ición</w>"
    ],
    [
      "o",
      "rada</w>"
    ],
    [
      "l",
      "esi"
    ],
    [
      "es",
      "a</w>"
    ],
    [
      "b",
      "ras</w>"
    ],
    [
      "v",
      "ida</w>"
    ],
    [
      "g",
      "é"
    ],
    [
      "a",
      "m</w>"
    ],
    [
      "m",
      "í"
    ],
    [
      "é",
      "c"
    ],
    [
      "g",
      "ó</w>"
    ],
    [
      "ú",
      "t"
    ],
    [
      "u",
      "el"
    ],
    [
      "ri",
      "g"
    ],
    [
      "sol",
      "o</w>"
    ],
    [
      "r",
      "l"
    ],
    [
      "españ",
      "o"
    ],
    [
      "m",
      "or"
    ],
    [
      "re",
      "p"
    ],
    [
      "i",
      "nos</w>"
    ],
    [
      "n",
      "orte</w>"
    ],
    [
      "provinci",
      "a</w>"
    ],
    [
      "con",
      "c"
    ],
    [
      "c",
      "k</w>"
    ],
    [
      "an",
      "d</w>"
    ],
    [
      "e",
      "d</w>"
    ],
    [
      "í",
      "f"
    ],
    [
      "ofici",
      "a"
    ],
    [
      "al",
      "a"
    ],
    [
      "v",
      "í"
    ],
    [
      "f",
      "ú"
    ],
    [
      "a",
      "lla</w>"
    ],
    [
      "r",
      "de</w>"
    ],
    [
      "o",
      "tras</w>"
    ],
    [
      "i",
      "ciones</w>"
    ],
    [
      "con",
      "d"
    ],
    [
      "e",
      "gos</w>"
    ],
    [
      "f",
      "inal</w>"
    ],
    [
      "t",
      "icip"
    ],
    [
      "ter",
      "a"
    ],
    [
      "a",
      "bri"
    ],
    [
      "serv",
      "i"
    ],
    [
      "p",
      "e</w>"
    ],
    [
      "h",
      "os</w>"
    ],
    [
      "t",
      "bol</w>"
    ],
    [
      "o",
      "y"
    ],
    [
      "o",
      "listas</w>"
    ],
    [
      "i",
      "ografía</w>"
    ],
    [
      "ú",
      "tbol</w>"
    ],
    [
      "f",
      "útbol</w>"
    ],
    [
      "tran",
      "s"
    ],
    [
      "c",
      "ula</w>"
    ],
    [
      "segund",
      "a</w>"
    ],
    [
      "her",
      "m"
    ],
    [
      "i",
      "ti"
    ],
    [
      "r",
      "era</w>"
    ],
    [
      "tu",
      "b"
    ],
    [
      "embar",
      "g"
    ],
    [
      "x",
      "ico</w>"
    ],
    [
      "u",
      "m</w>"
    ],
    [
      "embarg",
      "o</w>"
    ],
    [
      "persona",
      "s</w>"
    ],
    [
      "r",
      "ó"
    ],
    [
      "en",
      "g"
    ],
    [
      "b",
      "olistas</w>"
    ],
    [
      "u",
      "ri"
    ],
    [
      "nuev",
      "o</w>"
    ],
    [
      "and",
      "e"
    ],
    [
      "esta",
      "s</w>"
    ],
    [
      "r",
      "ticip"
    ],
    [
      "a",
      "rticip"
    ],
    [
      "p",
      "articip"
    ],
    [
      "ant",
      "a"
    ],
    [
      "u",
      "ien</w>"
    ],
    [
      "k",
      "a"
    ],
    [
      "en",
      "f"
    ],
    [
      "rí",
      "o</w>"
    ],
    [
      "l",
      "er"
    ],
    [
      "u",
      "el</w>"
    ],
    [
      "p",
      "rem"
    ],
    [
      "c",
      "hos</w>"
    ],
    [
      "cu",
      "l"
    ],
    [
      "municip",
      "i"
    ],
    [
      "municipi",
      "o</w>"
    ],
    [
      "ero",
      "s</w>"
    ],
    [
      "on",
      "a</w>"
    ],
    [
      "juli",
      "o</w>"
    ],
    [
      "d",
      "eci"
    ],
    [
      "p",
      "orada</w>"
    ],
    [
      "é",
      "xico</w>"
    ],
    [
      "a",
      "meri"
    ],
    [
      "m",
      "porada</w>"
    ],
    [
      "e",
      "mporada</w>"
    ],
    [
      "t",
      "emporada</w>"
    ],
    [
      "y",
      "o"
    ],
    [
      "f",
      "ran"
    ],
    [
      "l",
      "tim"
    ],
    [
      "esc",
      "u"
    ],
    [
      "enc",
      "o"
    ],
    [
      "n",
      "ici"
    ],
    [
      "a",
      "mento</w>"
    ],
    [
      "ac",
      "t"
    ],
    [
      "t",
      "bolistas</w>"
    ],
    [
      "u",
      "tbolistas</w>"
    ],
    [
      "f",
      "utbolistas</w>"
    ],
    [
      "c",
      "k"
    ],
    [
      "ro",
      "p"
    ],
    [
      "m",
      "éxico</w>"
    ],
    [
      "a",
      "q"
    ],
    [
      "t",
      "ivos</w>"
    ],
    [
      "v",
      "isión</w>"
    ],
    [
      "b",
      "ros</w>"
    ],
    [
      "d",
      "ucción</w>"
    ],
    [
      "li",
      "g"
    ],
    [
      "hi",
      "j"
    ],
    [
      "i",
      "rect"
    ],
    [
      "d",
      "irect"
    ],
    [
      "s",
      "al"
    ],
    [
      "l",
      "ección</w>"
    ],
    [
      "o",
      "sición</w>"
    ],
    [
      "p",
      "osición</w>"
    ],
    [
      "b",
      "ido</w>"
    ],
    [
      "l",
      "uego</w>"
    ],
    [
      "esp",
      "o"
    ],
    [
      "n",
      "ica</w>"
    ],
    [
      "n",
      "ero</w>"
    ],
    [
      "i",
      "nici"
    ],
    [
      "lle",
      "g"
    ],
    [
      "serv",
      "a"
    ],
    [
      "t",
      "l"
    ],
    [
      "dere",
      "c"
    ],
    [
      "derec",
      "h"
    ],
    [
      "s",
      "t</w>"
    ],
    [
      "i",
      "ber"
    ],
    [
      "u",
      "esto</w>"
    ],
    [
      "p",
      "uesto</w>"
    ],
    [
      "estab",
      "a</w>"
    ],
    [
      "ar",
      "m"
    ],
    [
      "po",
      "s"
    ],
    [
      "c",
      "h</w>"
    ],
    [
      "n",
      "z"
    ],
    [
      "n",
      "almente</w>"
    ],
    [
      "u",
      "an</w>"
    ],
    [
      "comp",
      "a"
    ],
    [
      "an",
      "g"
    ],
    [
      "t",
      "h</w>"
    ],
    [
      "t",
      "ante</w>"
    ],
    [
      "m",
      "ado</w>"
    ],
    [
      "o",
      "j"
    ],
    [
      "q",
      "uien</w>"
    ],
    [
      "may",
      "o</w>"
    ],
    [
      "u",
      "egos</w>"
    ],
    [
      "s",
      "idente</w>"
    ],
    [
      "c",
      "entra"
    ],
    [
      "a",
      "la</w>"
    ],
    [
      "pa",
      "í"
    ],
    [
      "br",
      "a</w>"
    ],
    [
      "paí",
      "s</w>"
    ],
    [
      "í",
      "cula</w>"
    ],
    [
      "em",
      "b"
    ],
    [
      "lar",
      "e"
    ],
    [
      "e",
      "sidente</w>"
    ],
    [
      "r",
      "esidente</w>"
    ],
    [
      "c",
      "imiento</w>"
    ],
    [
      "an",
      "a"
    ],
    [
      "d",
      "ía</w>"
    ],
    [
      "e",
      "y"
    ],
    [
      "mund",
      "o</w>"
    ],
    [
      "e",
      "mas</w>"
    ],
    [
      "ú",
      "ltim"
    ],
    [
      "fuer",
      "z"
    ],
    [
      "con",
      "o"
    ],
    [
      "h",
      "acia</w>"
    ],
    [
      "es",
      "a"
    ],
    [
      "m",
      "uert"
    ],
    [
      "j",
      "uni"
    ],
    [
      "aria",
      "s</w>"
    ],
    [
      "j",
      "uegos</w>"
    ],
    [
      "u",
      "nas</w>"
    ],
    [
      "v",
      "as</w>"
    ],
    [
      "r",
      "ero</w>"
    ],
    [
      "j",
      "uan</w>"
    ],
    [
      "lar",
      "g"
    ],
    [
      "li",
      "b"
    ],
    [
      "c",
      "entro</w>"
    ],
    [
      "s",
      "teri"
    ],
    [
      "u",
      "ales</w>"
    ],
    [
      "r",
      "ente</w>"
    ],
    [
      "t",
      "anto</w>"
    ],
    [
      "u",
      "los</w>"
    ],
    [
      "j",
      "os"
    ],
    [
      "i",
      "dera"
    ],
    [
      "pro",
      "p"
    ],
    [
      "di",
      "v"
    ],
    [
      "p",
      "residente</w>"
    ],
    [
      "ist",
      "e"
    ],
    [
      "s",
      "iendo</w>"
    ],
    [
      "an",
      "c"
    ],
    [
      "u",
      "rop"
    ],
    [
      "l",
      "ícula</w>"
    ],
    [
      "e",
      "lícula</w>"
    ],
    [
      "p",
      "elícula</w>"
    ],
    [
      "e",
      "urop"
    ],
    [
      "p",
      "uert"
    ],
    [
      "mon",
      "t"
    ],
    [
      "i",
      "tal</w>"
    ],
    [
      "o",
      "men"
    ],
    [
      "ar",
      "c"
    ],
    [
      "ameri",
      "c"
    ],
    [
      "di",
      "o</w>"
    ],
    [
      "an",
      "o</w>"
    ],
    [
      "enco",
      "n"
    ],
    [
      "encon",
      "t"
    ],
    [
      "encont",
      "r"
    ],
    [
      "herm",
      "a"
    ],
    [
      "tr",
      "a</w>"
    ],
    [
      "é",
      "ase</w>"
    ],
    [
      "e",
      "bido</w>"
    ],
    [
      "p",
      "on"
    ],
    [
      "eni",
      "d"
    ],
    [
      "cor",
      "t"
    ],
    [
      "u",
      "per"
    ],
    [
      "v",
      "éase</w>"
    ],
    [
      "d",
      "ebido</w>"
    ],
    [
      "d",
      "encia</w>"
    ],
    [
      "lare",
      "s</w>"
    ],
    [
      "c",
      "omen"
    ],
    [
      "comen",
      "z"
    ],
    [
      "tub",
      "r"
    ],
    [
      "tubr",
      "e</w>"
    ],
    [
      "c",
      "tubre</w>"
    ],
    [
      "o",
      "ctubre</w>"
    ],
    [
      "ari",
      "a</w>"
    ],
    [
      "argentin",
      "a</w>"
    ],
    [
      "ing",
      "l"
    ],
    [
      "c",
      "ios</w>"
    ],
    [
      "r",
      "mente</w>"
    ],
    [
      "tiem",
      "b"
    ],
    [
      "á",
      "g"
    ],
    [
      "tiemb",
      "r"
    ],
    [
      "tiembr",
      "e</w>"
    ],
    [
      "mar",
      "z"
    ],
    [
      "l",
      "eman"
    ],
    [
      "re",
      "d"
    ],
    [
      "div",
      "i"
    ],
    [
      "g",
      "unos</w>"
    ],
    [
      "l",
      "gunos</w>"
    ],
    [
      "a",
      "lgunos</w>"
    ],
    [
      "ier",
      "t"
    ],
    [
      "a",
      "e</w>"
    ],
    [
      "p",
      "tiembre</w>"
    ],
    [
      "e",
      "ptiembre</w>"
    ],
    [
      "s",
      "eptiembre</w>"
    ],
    [
      "a",
      "k"
    ],
    [
      "reci",
      "b"
    ],
    [
      "ener",
      "o</w>"
    ],
    [
      "n",
      "ales</w>"
    ],
    [
      "t",
      "icas</w>"
    ],
    [
      "l",
      "ista</w>"
    ],
    [
      "a",
      "leman"
    ],
    [
      "mar",
      "í"
    ],
    [
      "marz",
      "o</w>"
    ],
    [
      "c",
      "amente</w>"
    ],
    [
      "h",
      "il"
    ],
    [
      "ind",
      "i"
    ],
    [
      "é",
      "l</w>"
    ],
    [
      "jos",
      "é</w>"
    ],
    [
      "u",
      "f"
    ],
    [
      "m",
      "pres"
    ],
    [
      "rev",
      "i"
    ],
    [
      "pare",
      "c"
    ],
    [
      "u",
      "ti"
    ],
    [
      "mund",
      "i"
    ],
    [
      "r",
      "encia</w>"
    ],
    [
      "p",
      "aci"
    ],
    [
      "p",
      "ort"
    ],
    [
      "mundi",
      "a"
    ],
    [
      "mundia",
      "l</w>"
    ],
    [
      "juni",
      "o</w>"
    ],
    [
      "l",
      "b"
    ],
    [
      "g",
      "lesi"
    ],
    [
      "i",
      "glesi"
    ],
    [
      "e",
      "as</w>"
    ],
    [
      "u",
      "las</w>"
    ],
    [
      "ar",
      "e"
    ],
    [
      "i",
      "camente</w>"
    ],
    [
      "herma",
      "n"
    ],
    [
      "anti",
      "g"
    ],
    [
      "ist",
      "r"
    ],
    [
      "mient",
      "o"
    ],
    [
      "cos",
      "t"
    ],
    [
      "miento",
      "s</w>"
    ],
    [
      "d",
      "uci"
    ],
    [
      "internaciona",
      "l</w>"
    ],
    [
      "ar",
      "s"
    ],
    [
      "lib",
      "r"
    ],
    [
      "servi",
      "c"
    ],
    [
      "regi",
      "ó"
    ],
    [
      "regió",
      "n</w>"
    ],
    [
      "s",
      "iste"
    ],
    [
      "r",
      "mación</w>"
    ],
    [
      "r",
      "rera</w>"
    ],
    [
      "prem",
      "i"
    ],
    [
      "ar",
      "q"
    ],
    [
      "l",
      "ica</w>"
    ],
    [
      "a",
      "nter"
    ],
    [
      "arq",
      "u"
    ],
    [
      "u",
      "es</w>"
    ],
    [
      "i",
      "vers"
    ],
    [
      "emb",
      "r"
    ],
    [
      "a",
      "rrera</w>"
    ],
    [
      "si",
      "m"
    ],
    [
      "c",
      "ens"
    ],
    [
      "ter",
      "c"
    ],
    [
      "tení",
      "a</w>"
    ],
    [
      "siste",
      "m"
    ],
    [
      "sistem",
      "a</w>"
    ],
    [
      "t",
      "ierr"
    ],
    [
      "u",
      "estr"
    ],
    [
      "s",
      "k"
    ],
    [
      "abri",
      "l</w>"
    ],
    [
      "comun",
      "i"
    ],
    [
      "ingl",
      "é"
    ],
    [
      "inglé",
      "s</w>"
    ],
    [
      "p",
      "ción</w>"
    ],
    [
      "reali",
      "z"
    ],
    [
      "l",
      "l</w>"
    ],
    [
      "mar",
      "t"
    ],
    [
      "ost",
      "o</w>"
    ],
    [
      "á",
      "s"
    ],
    [
      "ali",
      "a</w>"
    ],
    [
      "b",
      "j"
    ],
    [
      "madr",
      "i"
    ],
    [
      "dici",
      "e"
    ],
    [
      "dicie",
      "m"
    ],
    [
      "diciem",
      "b"
    ],
    [
      "diciemb",
      "r"
    ],
    [
      "diciembr",
      "e</w>"
    ],
    [
      "n",
      "ciones</w>"
    ],
    [
      "g",
      "osto</w>"
    ],
    [
      "a",
      "gosto</w>"
    ],
    [
      "m",
      "ó"
    ],
    [
      "ente",
      "r</w>"
    ],
    [
      "ian",
      "o</w>"
    ],
    [
      "e",
      "presenta"
    ],
    [
      "r",
      "epresenta"
    ],
    [
      "re",
      "y</w>"
    ],
    [
      "u",
      "atro</w>"
    ],
    [
      "c",
      "uatro</w>"
    ],
    [
      "í",
      "tica</w>"
    ],
    [
      "e",
      "os</w>"
    ],
    [
      "ent",
      "o</w>"
    ],
    [
      "m",
      "ó</w>"
    ],
    [
      "p",
      "s"
    ],
    [
      "prop",
      "i"
    ],
    [
      "americ",
      "a"
    ],
    [
      "o",
      "x"
    ],
    [
      "servic",
      "i"
    ],
    [
      "z",
      "ado</w>"
    ],
    [
      "tene",
      "r</w>"
    ],
    [
      "s",
      "uper"
    ],
    [
      "in",
      "i"
    ],
    [
      "b",
      "rero</w>"
    ],
    [
      "c",
      "esi"
    ],
    [
      "v",
      "arios</w>"
    ],
    [
      "u",
      "ch"
    ],
    [
      "oficia",
      "l</w>"
    ],
    [
      "con",
      "f"
    ],
    [
      "d",
      "istr"
    ],
    [
      "o",
      "rmación</w>"
    ],
    [
      "f",
      "ormación</w>"
    ],
    [
      "bu",
      "m</w>"
    ],
    [
      "l",
      "iber"
    ],
    [
      "o",
      "bra</w>"
    ],
    [
      "españo",
      "l</w>"
    ],
    [
      "e",
      "visión</w>"
    ],
    [
      "c",
      "enter</w>"
    ],
    [
      "l",
      "evisión</w>"
    ],
    [
      "l",
      "bum</w>"
    ],
    [
      "á",
      "lbum</w>"
    ],
    [
      "c",
      "arrera</w>"
    ],
    [
      "ú",
      "mero</w>"
    ],
    [
      "to",
      "r</w>"
    ],
    [
      "embr",
      "e</w>"
    ],
    [
      "i",
      "almente</w>"
    ],
    [
      "lle",
      "v"
    ],
    [
      "ant",
      "o"
    ],
    [
      "n",
      "úmero</w>"
    ],
    [
      "ñ",
      "a"
    ],
    [
      "e",
      "levisión</w>"
    ],
    [
      "t",
      "elevisión</w>"
    ],
    [
      "b",
      "res</w>"
    ],
    [
      "y",
      "a"
    ],
    [
      "i",
      "embre</w>"
    ],
    [
      "v",
      "iembre</w>"
    ],
    [
      "o",
      "viembre</w>"
    ],
    [
      "n",
      "oviembre</w>"
    ],
    [
      "on",
      "o"
    ],
    [
      "distr",
      "i"
    ],
    [
      "and",
      "r"
    ],
    [
      "l",
      "m"
    ],
    [
      "l",
      "d</w>"
    ],
    [
      "car",
      "g"
    ],
    [
      "l",
      "idades</w>"
    ],
    [
      "e",
      "llos</w>"
    ],
    [
      "n",
      "g</w>"
    ],
    [
      "esp",
      "e"
    ],
    [
      "ona",
      "t"
    ],
    [
      "e",
      "den</w>"
    ],
    [
      "cas",
      "a</w>"
    ],
    [
      "e",
      "ó"
    ],
    [
      "n",
      "ico</w>"
    ],
    [
      "k",
      "o"
    ],
    [
      "ú",
      "sica</w>"
    ],
    [
      "m",
      "úsica</w>"
    ],
    [
      "a",
      "í"
    ],
    [
      "i",
      "tantes</w>"
    ],
    [
      "can",
      "a"
    ],
    [
      "madri",
      "d</w>"
    ],
    [
      "i",
      "de</w>"
    ],
    [
      "con",
      "v"
    ],
    [
      "al",
      "g"
    ],
    [
      "est",
      "á"
    ],
    [
      "comp",
      "l"
    ],
    [
      "l",
      "c"
    ],
    [
      "ena",
      "d"
    ],
    [
      "ita",
      "r</w>"
    ],
    [
      "i",
      "das</w>"
    ],
    [
      "u",
      "almente</w>"
    ],
    [
      "l",
      "f"
    ],
    [
      "antig",
      "u"
    ],
    [
      "a",
      "y</w>"
    ],
    [
      "j",
      "or</w>"
    ],
    [
      "a",
      "ti"
    ],
    [
      "c",
      "ialmente</w>"
    ],
    [
      "e",
      "jor</w>"
    ],
    [
      "m",
      "ejor</w>"
    ],
    [
      "re",
      "l"
    ],
    [
      "e",
      "rencia</w>"
    ],
    [
      "estr",
      "u"
    ],
    [
      "x",
      "c"
    ],
    [
      "s",
      "as</w>"
    ],
    [
      "t",
      "amente</w>"
    ],
    [
      "ti",
      "p"
    ],
    [
      "u",
      "ela</w>"
    ],
    [
      "o",
      "pera"
    ],
    [
      "v",
      "amente</w>"
    ],
    [
      "ura",
      "l</w>"
    ],
    [
      "i",
      "pos</w>"
    ],
    [
      "p",
      "á"
    ],
    [
      "premi",
      "o</w>"
    ],
    [
      "arr",
      "i"
    ],
    [
      "ento",
      "n"
    ],
    [
      "principa",
      "l</w>"
    ],
    [
      "t",
      "y</w>"
    ],
    [
      "u",
      "enta</w>"
    ],
    [
      "u",
      "r</w>"
    ],
    [
      "ens",
      "a"
    ],
    [
      "s",
      "idera"
    ],
    [
      "rea",
      "l</w>"
    ],
    [
      "c",
      "uenta</w>"
    ],
    [
      "n",
      "sidera"
    ],
    [
      "o",
      "nsidera"
    ],
    [
      "c",
      "onsidera"
    ],
    [
      "ma",
      "r</w>"
    ],
    [
      "r",
      "v"
    ],
    [
      "encontr",
      "a"
    ],
    [
      "r",
      "ancia</w>"
    ],
    [
      "e",
      "dición</w>"
    ],
    [
      "es",
      "o"
    ],
    [
      "o",
      "tal</w>"
    ],
    [
      "marí",
      "a</w>"
    ],
    [
      "re",
      "a</w>"
    ],
    [
      "a",
      "gu"
    ],
    [
      "c",
      "alidad</w>"
    ],
    [
      "perm",
      "i"
    ],
    [
      "end",
      "e"
    ],
    [
      "t",
      "otal</w>"
    ],
    [
      "u",
      "eden</w>"
    ],
    [
      "tra",
      "v"
    ],
    [
      "enton",
      "c"
    ],
    [
      "entonc",
      "e"
    ],
    [
      "entonce",
      "s</w>"
    ],
    [
      "p",
      "or"
    ],
    [
      "e",
      "brero</w>"
    ],
    [
      "ena",
      "s</w>"
    ],
    [
      "lan",
      "c"
    ],
    [
      "f",
      "ebrero</w>"
    ],
    [
      "f",
      "rancia</w>"
    ],
    [
      "o",
      "tro</w>"
    ],
    [
      "o",
      "ducción</w>"
    ],
    [
      "r",
      "oducción</w>"
    ],
    [
      "p",
      "ueden</w>"
    ],
    [
      "l",
      "ic"
    ],
    [
      "e",
      "cciones</w>"
    ],
    [
      "com",
      "i"
    ],
    [
      "min",
      "i"
    ],
    [
      "c",
      "tores</w>"
    ],
    [
      "mero",
      "s</w>"
    ],
    [
      "n",
      "aci"
    ],
    [
      "u",
      "ntos</w>"
    ],
    [
      "const",
      "r"
    ],
    [
      "c",
      "la"
    ],
    [
      "p",
      "ios</w>"
    ],
    [
      "escri",
      "b"
    ],
    [
      "constr",
      "u"
    ],
    [
      "el",
      "l"
    ],
    [
      "g",
      "en"
    ],
    [
      "terr",
      "i"
    ],
    [
      "medi",
      "o</w>"
    ],
    [
      "n",
      "i</w>"
    ],
    [
      "r",
      "den</w>"
    ],
    [
      "e",
      "e"
    ],
    [
      "á",
      "m"
    ],
    [
      "u",
      "ación</w>"
    ],
    [
      "ande",
      "s</w>"
    ],
    [
      "e",
      "li"
    ],
    [
      "o",
      "rden</w>"
    ],
    [
      "g",
      "h"
    ],
    [
      "compl",
      "e"
    ],
    [
      "emp",
      "l"
    ],
    [
      "b",
      "or"
    ],
    [
      "i",
      "ene"
    ],
    [
      "n",
      "ación</w>"
    ],
    [
      "c",
      "hil"
    ],
    [
      "cuer",
      "d"
    ],
    [
      "in",
      "f"
    ],
    [
      "ha",
      "y</w>"
    ],
    [
      "c",
      "lar"
    ],
    [
      "iglesi",
      "a</w>"
    ],
    [
      "ter",
      "í"
    ],
    [
      "e",
      "lección</w>"
    ],
    [
      "ca",
      "p"
    ],
    [
      "ins",
      "t"
    ],
    [
      "conocid",
      "o</w>"
    ],
    [
      "s",
      "anta</w>"
    ],
    [
      "o",
      "rmente</w>"
    ],
    [
      "es",
      "e"
    ],
    [
      "o",
      "bras</w>"
    ],
    [
      "onat",
      "o</w>"
    ],
    [
      "id",
      "e"
    ],
    [
      "bar",
      "c"
    ],
    [
      "i",
      "rig"
    ],
    [
      "bier",
      "t"
    ],
    [
      "tiv",
      "a</w>"
    ],
    [
      "trav",
      "é"
    ],
    [
      "travé",
      "s</w>"
    ],
    [
      "segund",
      "o</w>"
    ],
    [
      "d",
      "irig"
    ],
    [
      "e",
      "ctos</w>"
    ],
    [
      "res",
      "u"
    ],
    [
      "y",
      "l"
    ],
    [
      "us",
      "o</w>"
    ],
    [
      "e",
      "tros</w>"
    ],
    [
      "s",
      "ado</w>"
    ],
    [
      "o",
      "a"
    ],
    [
      "cor",
      "r"
    ],
    [
      "trabaj",
      "o</w>"
    ],
    [
      "all",
      "e</w>"
    ],
    [
      "m",
      "etros</w>"
    ],
    [
      "divi",
      "s"
    ],
    [
      "d",
      "ense</w>"
    ],
    [
      "especi",
      "a"
    ],
    [
      "i",
      "encia</w>"
    ],
    [
      "c",
      "ant"
    ],
    [
      "b",
      "itantes</w>"
    ],
    [
      "a",
      "bitantes</w>"
    ],
    [
      "h",
      "abitantes</w>"
    ],
    [
      "empl",
      "o</w>"
    ],
    [
      "enc",
      "a"
    ],
    [
      "u",
      "esta</w>"
    ],
    [
      "termin",
      "a"
    ],
    [
      "z",
      "ona</w>"
    ],
    [
      "r",
      "los</w>"
    ],
    [
      "i",
      "nalmente</w>"
    ],
    [
      "z",
      "u"
    ],
    [
      "p",
      "ital</w>"
    ],
    [
      "l",
      "on"
    ],
    [
      "b",
      "anda</w>"
    ],
    [
      "direct",
      "o"
    ],
    [
      "o",
      "w"
    ],
    [
      "uni",
      "d"
    ],
    [
      "v",
      "en</w>"
    ],
    [
      "compa",
      "ñ"
    ],
    [
      "k",
      "e</w>"
    ],
    [
      "i",
      "dense</w>"
    ],
    [
      "al",
      "l</w>"
    ],
    [
      "n",
      "idense</w>"
    ],
    [
      "i",
      "ormente</w>"
    ],
    [
      "r",
      "iormente</w>"
    ],
    [
      "e",
      "riormente</w>"
    ],
    [
      "u",
      "nidense</w>"
    ],
    [
      "y",
      "e</w>"
    ],
    [
      "b",
      "les</w>"
    ],
    [
      "o",
      "unidense</w>"
    ],
    [
      "d",
      "ounidense</w>"
    ],
    [
      "a",
      "dounidense</w>"
    ],
    [
      "t",
      "adounidense</w>"
    ],
    [
      "s",
      "tadounidense</w>"
    ],
    [
      "e",
      "stadounidense</w>"
    ],
    [
      "t",
      "eriormente</w>"
    ],
    [
      "i",
      "nales</w>"
    ],
    [
      "divis",
      "i"
    ],
    [
      "a",
      "nción</w>"
    ],
    [
      "permi",
      "t"
    ],
    [
      "b",
      "s"
    ],
    [
      "i",
      "cada</w>"
    ],
    [
      "especi",
      "e</w>"
    ],
    [
      "f",
      "erencia</w>"
    ],
    [
      "o",
      "este</w>"
    ],
    [
      "g",
      "ado</w>"
    ],
    [
      "cam",
      "b"
    ],
    [
      "e",
      "onato</w>"
    ],
    [
      "p",
      "eonato</w>"
    ],
    [
      "m",
      "peonato</w>"
    ],
    [
      "a",
      "mpeonato</w>"
    ],
    [
      "c",
      "ampeonato</w>"
    ],
    [
      "cens",
      "o</w>"
    ],
    [
      "d",
      "entro</w>"
    ],
    [
      "merc",
      "i"
    ],
    [
      "inter",
      "p"
    ],
    [
      "lan",
      "z"
    ],
    [
      "i",
      "can"
    ],
    [
      "a",
      "rlos</w>"
    ],
    [
      "ces",
      "o</w>"
    ],
    [
      "c",
      "aciones</w>"
    ],
    [
      "iene",
      "n</w>"
    ],
    [
      "tip",
      "o</w>"
    ],
    [
      "le",
      "y</w>"
    ],
    [
      "r",
      "ales</w>"
    ],
    [
      "c",
      "anción</w>"
    ],
    [
      "t",
      "idos</w>"
    ],
    [
      "o",
      "h"
    ],
    [
      "recib",
      "i"
    ],
    [
      "versi",
      "ó"
    ],
    [
      "versió",
      "n</w>"
    ],
    [
      "g",
      "ación</w>"
    ],
    [
      "e",
      "da"
    ],
    [
      "l",
      "ici"
    ],
    [
      "i",
      "nas</w>"
    ],
    [
      "o",
      "merci"
    ],
    [
      "c",
      "omerci"
    ],
    [
      "pro",
      "d"
    ],
    [
      "persona",
      "j"
    ],
    [
      "v",
      "el</w>"
    ],
    [
      "or",
      "g"
    ],
    [
      "d",
      "amente</w>"
    ],
    [
      "si",
      "e"
    ],
    [
      "chil",
      "e</w>"
    ],
    [
      "ver",
      "t"
    ],
    [
      "e",
      "le"
    ],
    [
      "t",
      "encia</w>"
    ],
    [
      "america",
      "n"
    ],
    [
      "o",
      "z"
    ],
    [
      "o",
      "q"
    ],
    [
      "cond",
      "a"
    ],
    [
      "prod",
      "u"
    ],
    [
      "fer",
      "i"
    ],
    [
      "li",
      "m"
    ],
    [
      "h",
      "as</w>"
    ],
    [
      "and",
      "i"
    ],
    [
      "ars",
      "e</w>"
    ],
    [
      "e",
      "ces</w>"
    ],
    [
      "ian",
      "a</w>"
    ],
    [
      "eno",
      "m"
    ],
    [
      "hi",
      "z"
    ],
    [
      "arm",
      "a"
    ],
    [
      "distri",
      "t"
    ],
    [
      "ro",
      "c"
    ],
    [
      "j",
      "é"
    ],
    [
      "cerc",
      "a</w>"
    ],
    [
      "ne",
      "a</w>"
    ],
    [
      "divisi",
      "ó"
    ],
    [
      "divisió",
      "n</w>"
    ],
    [
      "fran",
      "c"
    ],
    [
      "l",
      "aciones</w>"
    ],
    [
      "e",
      "dera"
    ],
    [
      "conda",
      "d"
    ],
    [
      "condad",
      "o</w>"
    ],
    [
      "p",
      "roducción</w>"
    ],
    [
      "ed",
      "r"
    ],
    [
      "camb",
      "i"
    ],
    [
      "colo",
      "r</w>"
    ],
    [
      "h",
      "e</w>"
    ],
    [
      "hiz",
      "o</w>"
    ],
    [
      "espe",
      "c"
    ],
    [
      "interp",
      "r"
    ],
    [
      "muert",
      "e</w>"
    ],
    [
      "e",
      "mpres"
    ],
    [
      "a",
      "lidades</w>"
    ],
    [
      "m",
      "ada</w>"
    ],
    [
      "interpr",
      "e"
    ],
    [
      "ec",
      "t"
    ],
    [
      "u",
      "si"
    ],
    [
      "rep",
      "ú"
    ],
    [
      "interpre",
      "t"
    ],
    [
      "u",
      "ras</w>"
    ],
    [
      "f",
      "edera"
    ],
    [
      "der",
      "r"
    ],
    [
      "f",
      "f"
    ],
    [
      "í",
      "nea</w>"
    ],
    [
      "l",
      "ínea</w>"
    ],
    [
      "a",
      "rde</w>"
    ],
    [
      "c",
      "ali"
    ],
    [
      "i",
      "k"
    ],
    [
      "r",
      "ucción</w>"
    ],
    [
      "t",
      "rucción</w>"
    ],
    [
      "s",
      "trucción</w>"
    ],
    [
      "d",
      "era</w>"
    ],
    [
      "p",
      "lan"
    ],
    [
      "repú",
      "b"
    ],
    [
      "repúb",
      "l"
    ],
    [
      "repúbl",
      "i"
    ],
    [
      "repúbli",
      "c"
    ],
    [
      "repúblic",
      "a</w>"
    ],
    [
      "distrit",
      "o</w>"
    ],
    [
      "i",
      "era</w>"
    ],
    [
      "ient",
      "a"
    ],
    [
      "art",
      "i"
    ],
    [
      "l",
      "s"
    ],
    [
      "está",
      "n</w>"
    ],
    [
      "m",
      "bres</w>"
    ],
    [
      "c",
      "uela</w>"
    ],
    [
      "cop",
      "a</w>"
    ],
    [
      "parti",
      "r</w>"
    ],
    [
      "d",
      "esta"
    ],
    [
      "terri",
      "t"
    ],
    [
      "jer",
      "e"
    ],
    [
      "esc",
      "a"
    ],
    [
      "m",
      "n"
    ],
    [
      "territ",
      "o"
    ],
    [
      "c",
      "ulas</w>"
    ],
    [
      "territo",
      "r"
    ],
    [
      "r",
      "ados</w>"
    ],
    [
      "c",
      "has</w>"
    ],
    [
      "ro",
      "m"
    ],
    [
      "r",
      "é"
    ],
    [
      "t",
      "s</w>"
    ],
    [
      "c",
      "toria</w>"
    ],
    [
      "s",
      "ter"
    ],
    [
      "territor",
      "i"
    ],
    [
      "agu",
      "a</w>"
    ],
    [
      "e",
      "e</w>"
    ],
    [
      "e",
      "sos</w>"
    ],
    [
      "ens",
      "a</w>"
    ],
    [
      "u",
      "chos</w>"
    ],
    [
      "t",
      "ienen</w>"
    ],
    [
      "é",
      "t"
    ],
    [
      "hij",
      "o</w>"
    ],
    [
      "n",
      "á"
    ],
    [
      "cit",
      "o</w>"
    ],
    [
      "enci",
      "ó"
    ],
    [
      "poc",
      "a</w>"
    ],
    [
      "n",
      "era</w>"
    ],
    [
      "enció",
      "n</w>"
    ],
    [
      "r",
      "anci"
    ],
    [
      "cons",
      "e"
    ],
    [
      "l",
      "eci"
    ],
    [
      "p",
      "adr"
    ],
    [
      "r",
      "andes</w>"
    ],
    [
      "s",
      "ent"
    ],
    [
      "g",
      "randes</w>"
    ],
    [
      "m",
      "bros</w>"
    ],
    [
      "fi",
      "r"
    ],
    [
      "ci",
      "r"
    ],
    [
      "u",
      "iente</w>"
    ],
    [
      "g",
      "uiente</w>"
    ],
    [
      "i",
      "guiente</w>"
    ],
    [
      "s",
      "iguiente</w>"
    ],
    [
      "d",
      "ado</w>"
    ],
    [
      "c",
      "har"
    ],
    [
      "tierr",
      "a</w>"
    ],
    [
      "da",
      "v"
    ],
    [
      "dirig",
      "i"
    ],
    [
      "t",
      "arde</w>"
    ],
    [
      "t",
      "enid"
    ],
    [
      "t",
      "ural</w>"
    ],
    [
      "f",
      "ica</w>"
    ],
    [
      "f",
      "ranci"
    ],
    [
      "po",
      "l"
    ],
    [
      "or",
      "í"
    ],
    [
      "entr",
      "e"
    ],
    [
      "u",
      "se"
    ],
    [
      "n",
      "ado</w>"
    ],
    [
      "poc",
      "o</w>"
    ],
    [
      "y",
      "ó</w>"
    ],
    [
      "desta",
      "c"
    ],
    [
      "arqu",
      "i"
    ],
    [
      "a",
      "cción</w>"
    ],
    [
      "alt",
      "a</w>"
    ],
    [
      "a",
      "cidos</w>"
    ],
    [
      "art",
      "e</w>"
    ],
    [
      "u",
      "man"
    ],
    [
      "n",
      "acidos</w>"
    ],
    [
      "perio",
      "d"
    ],
    [
      "des",
      "e"
    ],
    [
      "en",
      "v"
    ],
    [
      "la",
      "r</w>"
    ],
    [
      "l",
      "li"
    ],
    [
      "f",
      "icación</w>"
    ],
    [
      "s",
      "ó"
    ],
    [
      "w",
      "ar"
    ],
    [
      "i",
      "caciones</w>"
    ],
    [
      "an",
      "e"
    ],
    [
      "f",
      "on"
    ],
    [
      "it",
      "o</w>"
    ],
    [
      "r",
      "adi"
    ],
    [
      "al",
      "o"
    ],
    [
      "i",
      "pios</w>"
    ],
    [
      "o",
      "mbres</w>"
    ],
    [
      "c",
      "ipios</w>"
    ],
    [
      "e",
      "ino</w>"
    ],
    [
      "desarroll",
      "o</w>"
    ],
    [
      "n",
      "ces"
    ],
    [
      "r",
      "p"
    ],
    [
      "é",
      "nero</w>"
    ],
    [
      "g",
      "énero</w>"
    ],
    [
      "m",
      "uchos</w>"
    ],
    [
      "in",
      "e</w>"
    ],
    [
      "o",
      "tra</w>"
    ],
    [
      "cul",
      "t"
    ],
    [
      "or",
      "i"
    ],
    [
      "m",
      "en</w>"
    ],
    [
      "r",
      "eino</w>"
    ],
    [
      "i",
      "zado</w>"
    ],
    [
      "u",
      "l</w>"
    ],
    [
      "r",
      "y</w>"
    ],
    [
      "larg",
      "o</w>"
    ],
    [
      "min",
      "o</w>"
    ],
    [
      "l",
      "ítica</w>"
    ],
    [
      "t",
      "ancia</w>"
    ],
    [
      "uti",
      "l"
    ],
    [
      "c",
      "iente</w>"
    ],
    [
      "r",
      "ogra"
    ],
    [
      "resu",
      "l"
    ],
    [
      "o",
      "lítica</w>"
    ],
    [
      "resul",
      "t"
    ],
    [
      "p",
      "rogra"
    ],
    [
      "j",
      "as</w>"
    ],
    [
      "c",
      "arlos</w>"
    ],
    [
      "g",
      "unas</w>"
    ],
    [
      "lig",
      "a</w>"
    ],
    [
      "í",
      "g"
    ],
    [
      "l",
      "ones</w>"
    ],
    [
      "u",
      "dios</w>"
    ],
    [
      "o",
      "ca"
    ],
    [
      "ani",
      "m"
    ],
    [
      "p",
      "olítica</w>"
    ],
    [
      "g",
      "n</w>"
    ],
    [
      "tu",
      "l"
    ],
    [
      "o",
      "mento</w>"
    ],
    [
      "escrit",
      "o"
    ],
    [
      "t",
      "amento</w>"
    ],
    [
      "l",
      "ecciones</w>"
    ],
    [
      "ech",
      "o</w>"
    ],
    [
      "r",
      "entes</w>"
    ],
    [
      "com",
      "b"
    ],
    [
      "s",
      "í"
    ],
    [
      "conv",
      "i"
    ],
    [
      "d",
      "ías</w>"
    ],
    [
      "r",
      "cito</w>"
    ],
    [
      "c",
      "iert"
    ],
    [
      "tor",
      "n"
    ],
    [
      "a",
      "nciones</w>"
    ],
    [
      "u",
      "menta"
    ],
    [
      "e",
      "mbros</w>"
    ],
    [
      "i",
      "embros</w>"
    ],
    [
      "m",
      "iembros</w>"
    ],
    [
      "i",
      "ficación</w>"
    ],
    [
      "é",
      "rcito</w>"
    ],
    [
      "t",
      "udios</w>"
    ],
    [
      "s",
      "tudios</w>"
    ],
    [
      "gan",
      "a"
    ],
    [
      "j",
      "ército</w>"
    ],
    [
      "e",
      "jército</w>"
    ],
    [
      "ad",
      "a"
    ],
    [
      "estru",
      "c"
    ],
    [
      "util",
      "i"
    ],
    [
      "í",
      "culas</w>"
    ],
    [
      "g",
      "er"
    ],
    [
      "estruc",
      "t"
    ],
    [
      "progra",
      "m"
    ],
    [
      "padr",
      "e</w>"
    ],
    [
      "i",
      "q"
    ],
    [
      "esi",
      "o"
    ],
    [
      "s",
      "cuela</w>"
    ],
    [
      "e",
      "scuela</w>"
    ],
    [
      "an",
      "n"
    ],
    [
      "o",
      "der"
    ],
    [
      "esio",
      "n"
    ],
    [
      "s",
      "iones</w>"
    ],
    [
      "t",
      "ual</w>"
    ],
    [
      "to",
      "m"
    ],
    [
[...]
